{"256": " t", "257": "he", "258": " a", "259": " s", "260": " w", "261": "nd", "262": " the", "263": "ed", "264": " b", "265": " to", "266": " and", "267": " h", "268": " f", "269": "in", "270": " T", "271": " wa", "272": "re", "273": "it", "274": "ou", "275": " l", "276": " d", "277": " c", "278": " p", "279": "ay", "280": " m", "281": "er", "282": " was", "283": "om", "284": " The", "285": " he", "286": "is", "287": "ar", "288": " n", "289": "im", "290": "on", "291": " sa", "292": "id", "293": "ll", "294": " ha", "295": " g", "296": "at", "297": " S", "298": "ing", "299": "ot", "300": "en", "301": "an", "302": "le", "303": "or", "304": "ir", "305": "am", "306": "et", "307": " H", "308": " it", "309": " th", "310": "ig", "311": " They", "312": " in", "313": "il", "314": " pl", "315": " He", "316": " \"", "317": "ow", "318": "ver", "319": "ri", "320": "ut", "321": " be", "322": " u", "323": " said", "324": " play", "325": "ith", "326": " day", "327": " with", "328": "pp", "329": "On", "330": " o", "331": " y", "332": "oo", "333": "ked", "334": " r", "335": " her", "336": "ce", "337": " I", "338": " She", "339": "ld", "340": " Tim", "341": " his", "342": " st", "343": "ke", "344": " e", "345": " big", "346": "nt", "347": "ck", "348": " you", "349": "very", "350": "st", "351": "ve", "352": "end", "353": " on", "354": "un", "355": " happ", "356": "riend", "357": " friend", "358": "all", "359": "ily", "360": " L", "361": " they", "362": " we", "363": " had", "364": " not", "365": " li", "366": " up", "367": "her", "368": " want", "369": " of", "370": "ad", "371": "itt", "372": "se", "373": " B", "374": " do", "375": " happy", "376": "ent", "377": " very", "378": " M", "379": "es", "380": " that", "381": " saw", "382": "One", "383": "'s", "384": "ould", "385": " mom", "386": " for", "387": " sh", "388": "ittle", "389": " little", "390": " so", "391": " she", "392": "ch", "393": "ime", "394": " ne", "395": " nam", "396": ".\"", "397": " time", "398": " k", "399": "ound", "400": " there", "401": " named", "402": " sm", "403": " bo", "404": " were", "405": " Lily", "406": " wanted", "407": " but", "408": "out", "409": "The", "410": " friends", "411": "ved", "412": "!\"", "413": "ht", "414": " Tom", "415": "ird", "416": "el", "417": " bird", "418": "al", "419": " an", "420": "ake", "421": " too", "422": "ome", "423": " It", "424": "ug", "425": "ide", "426": " went", "427": " wh", "428": " hel", "429": "Once", "430": " is", "431": " all", "432": " help", "433": "ue", "434": " loo", "435": " lo", "436": "ter", "437": " A", "438": " upon", "439": "ry", "440": "ore", "441": "ind", "442": " fun", "443": "get", "444": " toy", "445": "ill", "446": "ame", "447": " as", "448": " at", "449": "ra", "450": " j", "451": " did", "452": "gether", "453": " re", "454": "ur", "455": " se", "456": " together", "457": "ack", "458": " cat", "459": "ly", "460": " tre", "461": "ood", "462": "ic", "463": "ted", "464": " dog", "465": " could", "466": " can", "467": " their", "468": "ard", "469": "ec", "470": "ark", "471": " gir", "472": " played", "473": " him", "474": " ball", "475": "?\"", "476": " girl", "477": "way", "478": " ro", "479": " go", "480": "hed", "481": "my", "482": " are", "483": " out", "484": " le", "485": " fr", "486": "ain", "487": " kn", "488": "hen", "489": " them", "490": "um", "491": "'t", "492": "ax", "493": " sad", "494": "ul", "495": " boy", "496": " tree", "497": "other", "498": " have", "499": " man", "500": " cl", "501": " loved", "502": " looked", "503": "oug", "504": " found", "505": " sp", "506": " star", "507": " Sue", "508": "one", "509": "hing", "510": " sc", "511": " back", "512": "own", "513": " Max", "514": "are", "515": " like", "516": "ful", "517": "side", "518": " me", "519": " bec", "520": " park", "521": "ight", "522": "ong", "523": " car", "524": "op", "525": "elt", "526": " One", "527": " liked", "528": " would", "529": " make", "530": "round", "531": " la", "532": " fa", "533": " felt", "534": "You", "535": " W", "536": "ell", "537": " see", "538": " But", "539": "omet", "540": " asked", "541": "ag", "542": " new", "543": " no", "544": "ice", "545": " Sam", "546": "ouse", "547": " started", "548": "ared", "549": " came", "550": " Ben", "551": " al", "552": " other", "553": "ought", "554": "iled", "555": " somet", "556": " ag", "557": " good", "558": " small", "559": "ss", "560": " br", "561": " smiled", "562": " say", "563": "ried", "564": "ade", "565": "ings", "566": "ob", "567": "pot", "568": " wor", "569": " find", "570": " ex", "571": "ia", "572": " away", "573": "ty", "574": " put", "575": " what", "576": " something", "577": " co", "578": " from", "579": " made", "580": " thought", "581": "ened", "582": " home", "583": " playing", "584": "ook", "585": " every", "586": " wal", "587": " mu", "588": "uc", "589": "ach", "590": "arn", "591": " Spot", "592": " ran", "593": "ile", "594": " F", "595": "ie", "596": " J", "597": "ave", "598": " again", "599": " some", "600": " laug", "601": "dd", "602": " house", "603": " down", "604": " fl", "605": "king", "606": " took", "607": " scared", "608": " pr", "609": "ny", "610": "ure", "611": " toys", "612": " learn", "613": " You", "614": "if", "615": " will", "616": " box", "617": "ick", "618": "ret", "619": "ab", "620": "ep", "621": " my", "622": " around", "623": " things", "624": " your", "625": "oud", "626": " bl", "627": "uck", "628": " when", "629": "ish", "630": " lived", "631": " fe", "632": " then", "633": " sun", "634": "as", "635": " sw", "636": ",\"", "637": " ch", "638": "us", "639": "pped", "640": " ab", "641": " Mia", "642": "ank", "643": " get", "644": "ucy", "645": "Tim", "646": "ump", "647": "Th", "648": " lot", "649": "ist", "650": "oth", "651": " tried", "652": "ap", "653": " know", "654": " says", "655": " got", "656": "ited", "657": " who", "658": " kne", "659": "ust", "660": " many", "661": "nder", "662": " int", "663": " about", "664": "Lily", "665": " pret", "666": " dec", "667": " any", "668": " red", "669": " D", "670": "ive", "671": " knew", "672": "ace", "673": "ous", "674": " more", "675": "ise", "676": " care", "677": "ally", "678": " pic", "679": "au", "680": "qu", "681": " hug", "682": " Lucy", "683": " learned", "684": " po", "685": " water", "686": "fter", "687": " v", "688": " became", "689": " best", "690": "ause", "691": " op", "692": " gre", "693": " exc", "694": "urp", "695": "ways", "696": " outside", "697": " laughed", "698": " look", "699": " always", "700": " decid", "701": " show", "702": " un", "703": "ant", "704": " Bob", "705": " room", "706": "fe", "707": " decided", "708": " ho", "709": " because", "710": " So", "711": " into", "712": " eat", "713": "ite", "714": " jump", "715": " And", "716": " pe", "717": " both", "718": "ers", "719": " Mom", "720": " dad", "721": "They", "722": "udd", "723": " ke", "724": " one", "725": "nn", "726": " this", "727": " excited", "728": " fast", "729": " nice", "730": " E", "731": " feel", "732": "Tom", "733": "Yes", "734": " run", "735": " long", "736": " told", "737": " sk", "738": " am", "739": "urpr", "740": "our", "741": " inside", "742": "ull", "743": " tr", "744": " surpr", "745": " mo", "746": "ink", "747": " pretty", "748": "iny", "749": " sor", "750": "Wh", "751": " take", "752": "og", "753": " sl", "754": " each", "755": " gave", "756": " much", "757": " gra", "758": "lew", "759": "nna", "760": " rock", "761": " how", "762": " str", "763": "ara", "764": "imal", "765": " animal", "766": "ged", "767": " need", "768": " than", "769": "But", "770": "ven", "771": "etter", "772": " tow", "773": " or", "774": " C", "775": " under", "776": "ess", "777": " old", "778": " sorry", "779": "ge", "780": "ised", "781": "ro", "782": "urt", "783": " cle", "784": " fish", "785": " walked", "786": " clo", "787": "and", "788": " bear", "789": "ft", "790": "ase", "791": "ast", "792": " hand", "793": "urn", "794": " We", "795": " kind", "796": " His", "797": " te", "798": "here", "799": " happened", "800": " just", "801": " flow", "802": " food", "803": " list", "804": " didn", "805": " animals", "806": " hig", "807": "pl", "808": " near", "809": " wat", "810": " ide", "811": " try", "812": "ched", "813": " sky", "814": "ine", "815": " sn", "816": "ving", "817": " fi", "818": "rom", "819": " us", "820": " idea", "821": " better", "822": " Amy", "823": " bug", "824": " heard", "825": "gry", "826": " its", "827": " tw", "828": " let", "829": "pec", "830": "ate", "831": "able", "832": "ff", "833": " en", "834": " careful", "835": " share", "836": "ex", "837": " if", "838": "Thank", "839": "Mom", "840": " fly", "841": " stor", "842": "ial", "843": " flew", "844": "more", "845": " anymore", "846": " Th", "847": " spec", "848": " special", "849": "ion", "850": " com", "851": " lots", "852": " never", "853": " by", "854": "lf", "855": "ream", "856": " dan", "857": " bu", "858": " fo", "859": " wind", "860": " don", "861": " tal", "862": " clean", "863": "ort", "864": " gr", "865": " love", "866": "rm", "867": "ber", "868": " end", "869": " Then", "870": "\n\n", "871": "ople", "872": " even", "873": " mag", "874": " hard", "875": " shiny", "876": "udden", "877": " fore", "878": " over", "879": " cake", "880": "ak", "881": " book", "882": " col", "883": " turn", "884": " fam", "885": " bad", "886": " safe", "887": " after", "888": "ady", "889": " Anna", "890": "uddenly", "891": " people", "892": " proud", "893": " Every", "894": " surprised", "895": "pected", "896": "Let", "897": " high", "898": " cu", "899": " hurt", "900": " come", "901": "imb", "902": "arden", "903": " door", "904": " garden", "905": "bb", "906": " ground", "907": " opened", "908": " picked", "909": " loud", "910": " climb", "911": "expected", "912": " unexpected", "913": " gl", "914": " che", "915": "ild", "916": " im", "917": "As", "918": " give", "919": " way", "920": "ail", "921": "'m", "922": " thanked", "923": " color", "924": " blue", "925": " still", "926": " ever", "927": " hugged", "928": " From", "929": " call", "930": " far", "931": "ip", "932": " Her", "933": " Sara", "934": " When", "935": "No", "936": " off", "937": " magic", "938": "iz", "939": "ough", "940": "age", "941": "ummy", "942": " K", "943": " jumped", "944": " should", "945": " family", "946": " par", "947": "ool", "948": " kid", "949": " smile", "950": "hes", "951": "uff", "952": " place", "953": "kay", "954": " walk", "955": " now", "956": "ct", "957": " In", "958": " great", "959": "em", "960": "ture", "961": " qu", "962": "les", "963": " strong", "964": " stay", "965": " unt", "966": " sto", "967": "aut", "968": " forest", "969": "ane", "970": " bra", "971": "itty", "972": " P", "973": " frog", "974": " bro", "975": " until", "976": "oon", "977": " beaut", "978": "dy", "979": " squ", "980": " stick", "981": "xt", "982": " next", "983": " boat", "984": "lease", "985": "ning", "986": " happily", "987": " listen", "988": "aking", "989": " kids", "990": " tra", "991": "ies", "992": "iful", "993": " beautiful", "994": " app", "995": "th", "996": " helped", "997": " dra", "998": " showed", "999": " clos", "1000": "be", "1001": " imp", "1002": " story", "1003": "unny", "1004": "oy", "1005": " while", "1006": " town", "1007": "rel", "1008": "pt", "1009": " rain", "1010": "ress", "1011": " picture", "1012": " being", "1013": " rem", "1014": " everyone", "1015": "It", "1016": "ary", "1017": "ree", "1018": " mor", "1019": " hat", "1020": " called", "1021": " met", "1022": " stopped", "1023": " ad", "1024": " game", "1025": "Now", "1026": "He", "1027": "Can", "1028": " angry", "1029": "ger", "1030": "uffy", "1031": " open", "1032": " wo", "1033": " truck", "1034": " keep", "1035": " soft", "1036": "When", "1037": " cry", "1038": " yummy", "1039": " lost", "1040": " bed", "1041": " Let", "1042": " Sally", "1043": " warm", "1044": "by", "1045": "vent", "1046": " brave", "1047": " mouse", "1048": " Wh", "1049": " ate", "1050": " Kitty", "1051": "ished", "1052": " de", "1053": "fore", "1054": " doll", "1055": "so", "1056": " couldn", "1057": " watch", "1058": " leave", "1059": " also", "1060": "dded", "1061": " fell", "1062": " green", "1063": " face", "1064": " two", "1065": "gan", "1066": "iss", "1067": " flowers", "1068": "bit", "1069": "What", "1070": " R", "1071": "ble", "1072": " noise", "1073": "abbit", "1074": "irst", "1075": "owl", "1076": " where", "1077": "az", "1078": "ock", "1079": " soon", "1080": "self", "1081": " slide", "1082": " rabbit", "1083": " hole", "1084": "luffy", "1085": " before", "1086": "irrel", "1087": " pus", "1088": "ired", "1089": " sat", "1090": "illy", "1091": " hear", "1092": " use", "1093": "Hi", "1094": " pa", "1095": " kept", "1096": "That", "1097": " squirrel", "1098": "ear", "1099": "Then", "1100": "ma", "1101": " nodded", "1102": " expl", "1103": " store", "1104": " cook", "1105": " hands", "1106": "Look", "1107": " birds", "1108": " pain", "1109": " going", "1110": " funny", "1111": " having", "1112": "day", "1113": " sing", "1114": "aybe", "1115": "uch", "1116": " ey", "1117": "aug", "1118": " catch", "1119": "aught", "1120": " Can", "1121": " Fluffy", "1122": "uit", "1123": " yell", "1124": " think", "1125": "leep", "1126": " cra", "1127": " fin", "1128": "Ben", "1129": " bre", "1130": " fix", "1131": " tired", "1132": " bunny", "1133": " used", "1134": " looking", "1135": " bus", "1136": "ange", "1137": "air", "1138": " work", "1139": " wr", "1140": " our", "1141": " pull", "1142": "We", "1143": " thr", "1144": "thing", "1145": " Now", "1146": " wait", "1147": " kit", "1148": " sound", "1149": "ting", "1150": " jo", "1151": " has", "1152": " G", "1153": " mean", "1154": " pond", "1155": "ember", "1156": " beh", "1157": " dr", "1158": " sunny", "1159": "led", "1160": " others", "1161": " ask", "1162": "ng", "1163": "chen", "1164": " kitchen", "1165": " talk", "1166": " flo", "1167": " dif", "1168": "rew", "1169": " pie", "1170": " Jo", "1171": " head", "1172": " real", "1173": " first", "1174": " tri", "1175": " mommy", "1176": " eyes", "1177": "ello", "1178": " import", "1179": "Hello", "1180": " fav", "1181": "ath", "1182": "joy", "1183": " z", "1184": " remember", "1185": " right", "1186": " flower", "1187": " con", "1188": " mess", "1189": " party", "1190": " cold", "1191": " Do", "1192": " vo", "1193": " swe", "1194": "ious", "1195": " sand", "1196": " \u201c", "1197": "ac", "1198": "orn", "1199": " race", "1200": " curi", "1201": "imes", "1202": " important", "1203": " duck", "1204": " moral", "1205": " shared", "1206": "zy", "1207": "ount", "1208": " Jack", "1209": " ice", "1210": " okay", "1211": " advent", "1212": " worked", "1213": "llow", "1214": "At", "1215": " enjoy", "1216": " dress", "1217": " bright", "1218": " making", "1219": " curious", "1220": " own", "1221": " tall", "1222": " dir", "1223": " hop", "1224": "reed", "1225": " hid", "1226": " favor", "1227": " ri", "1228": "hn", "1229": " sleep", "1230": " dis", "1231": "Wow", "1232": " favorite", "1233": " thing", "1234": " began", "1235": " mon", "1236": " bag", "1237": " hill", "1238": "Don", "1239": " cla", "1240": " draw", "1241": " rest", "1242": " here", "1243": " yard", "1244": " tell", "1245": " Fin", "1246": "ster", "1247": " watched", "1248": "que", "1249": " follow", "1250": " move", "1251": " bel", "1252": "ect", "1253": " cut", "1254": " night", "1255": " agreed", "1256": " pick", "1257": "co", "1258": " block", "1259": " hun", "1260": "aper", "1261": "lly", "1262": " stop", "1263": " behind", "1264": " This", "1265": " surprise", "1266": "ied", "1267": " sho", "1268": " hot", "1269": "After", "1270": " table", "1271": " grass", "1272": " worry", "1273": " dark", "1274": " trees", "1275": " voice", "1276": " walking", "1277": "fere", "1278": " floor", "1279": " farm", "1280": " lion", "1281": " top", "1282": " differe", "1283": " please", "1284": " ru", "1285": " song", "1286": " butter", "1287": " tail", "1288": " sweet", "1289": "Max", "1290": " shout", "1291": " colors", "1292": " read", "1293": " Dad", "1294": " lady", "1295": " forg", "1296": "isy", "1297": " leaves", "1298": " closer", "1299": "ign", "1300": " cars", "1301": " turned", "1302": " needed", "1303": " tast", "1304": "Why", "1305": "aring", "1306": " wood", "1307": " cried", "1308": " different", "1309": " laugh", "1310": " del", "1311": " piece", "1312": "ered", "1313": " Mr", "1314": " roll", "1315": " adventure", "1316": " fire", "1317": " does", "1318": "ike", "1319": " cr", "1320": " hungry", "1321": " hair", "1322": " Suddenly", "1323": " paper", "1324": " feeling", "1325": " yellow", "1326": " full", "1327": "bo", "1328": " prin", "1329": "Sue", "1330": " touch", "1331": " As", "1332": "Anna", "1333": "Sam", "1334": " wet", "1335": " friendly", "1336": " per", "1337": "oom", "1338": "ken", "1339": "cked", "1340": "ached", "1341": " swing", "1342": " fruit", "1343": "ient", "1344": " broken", "1345": " ready", "1346": "bye", "1347": "ppy", "1348": " prom", "1349": " That", "1350": " another", "1351": " light", "1352": " pretend", "1353": " dance", "1354": "ater", "1355": " climbed", "1356": "where", "1357": " listened", "1358": " Bobo", "1359": " danc", "1360": " running", "1361": " only", "1362": " plan", "1363": " gone", "1364": " swim", "1365": "bbed", "1366": "Suddenly", "1367": "sh", "1368": " train", "1369": "ila", "1370": "ndma", "1371": "Sara", "1372": " Jane", "1373": " close", "1374": "av", "1375": "She", "1376": " smell", "1377": "So", "1378": "aby", "1379": " amaz", "1380": " hold", "1381": " blocks", "1382": " wonder", "1383": " Timmy", "1384": " repl", "1385": " All", "1386": " butterf", "1387": " sees", "1388": " reached", "1389": " wall", "1390": " pu", "1391": "oney", "1392": "red", "1393": " slow", "1394": " helping", "1395": " dri", "1396": " cream", "1397": " cool", "1398": " glad", "1399": "af", "1400": " ant", "1401": " less", "1402": " been", "1403": " goodbye", "1404": " ac", "1405": " fight", "1406": "ather", "1407": "Mia", "1408": " pushed", "1409": "iced", "1410": " fair", "1411": " must", "1412": " hide", "1413": " moment", "1414": " window", "1415": " O", "1416": " sit", "1417": " balloon", "1418": " snow", "1419": " child", "1420": " explore", "1421": " Everyone", "1422": " ar", "1423": " wished", "1424": " baby", "1425": " done", "1426": " wag", "1427": " ste", "1428": " buy", "1429": " stuck", "1430": " perf", "1431": " thank", "1432": " might", "1433": "icy", "1434": " name", "1435": "ized", "1436": " trying", "1437": " bit", "1438": " coming", "1439": " bar", "1440": " quick", "1441": " fall", "1442": " apple", "1443": "ash", "1444": " scary", "1445": " looks", "1446": " build", "1447": " doing", "1448": " win", "1449": " underst", "1450": "aisy", "1451": " din", "1452": " dream", "1453": " dirty", "1454": " held", "1455": "ames", "1456": " books", "1457": " mar", "1458": "In", "1459": " butterfly", "1460": " left", "1461": " shouted", "1462": " count", "1463": " replied", "1464": "avy", "1465": " reach", "1466": " tiny", "1467": " through", "1468": "ott", "1469": " dro", "1470": " why", "1471": " air", "1472": " bran", "1473": " land", "1474": "key", "1475": " three", "1476": " pulled", "1477": " spl", "1478": " grow", "1479": " treat", "1480": " brother", "1481": " wise", "1482": " woods", "1483": " sure", "1484": "'re", "1485": " chair", "1486": "ix", "1487": " mat", "1488": "ins", "1489": " seen", "1490": " pink", "1491": " clapped", "1492": " plant", "1493": "ely", "1494": " owl", "1495": " cup", "1496": "ield", "1497": " sometimes", "1498": "andy", "1499": " fill", "1500": " cloud", "1501": "ask", "1502": " swam", "1503": "outh", "1504": " job", "1505": " colorful", "1506": " remembered", "1507": " bigger", "1508": " nest", "1509": " mouth", "1510": "pe", "1511": "Okay", "1512": " lesson", "1513": " join", "1514": " cre", "1515": "ph", "1516": " There", "1517": "oup", "1518": "room", "1519": "art", "1520": " waved", "1521": "uddy", "1522": " grabbed", "1523": " stayed", "1524": "Oh", "1525": " paint", "1526": "This", "1527": " clot", "1528": " cont", "1529": " clothes", "1530": " ve", "1531": "ower", "1532": " After", "1533": " waited", "1534": " quickly", "1535": "cle", "1536": " word", "1537": " broke", "1538": "ucky", "1539": " games", "1540": " cast", "1541": " blew", "1542": " gent", "1543": " Mommy", "1544": " enjoyed", "1545": " noticed", "1546": "Jo", "1547": "ries", "1548": "ation", "1549": " set", "1550": " likes", "1551": " pictures", "1552": "ton", "1553": "de", "1554": " sea", "1555": " heavy", "1556": " mus", "1557": " alone", "1558": " gif", "1559": "asure", "1560": " anything", "1561": " spot", "1562": " miss", "1563": " hopped", "1564": " world", "1565": " turns", "1566": "orm", "1567": " year", "1568": "der", "1569": " bott", "1570": " pat", "1571": " pot", "1572": " pen", "1573": "lc", "1574": "Her", "1575": " mix", "1576": " arm", "1577": " bike", "1578": " tight", "1579": " everywhere", "1580": " won", "1581": "Lucy", "1582": " tower", "1583": " threw", "1584": " himself", "1585": " followed", "1586": " Buddy", "1587": " ride", "1588": "man", "1589": "less", "1590": " ju", "1591": " je", "1592": "amp", "1593": "Bob", "1594": "ape", "1595": " comp", "1596": " key", "1597": "row", "1598": "\".", "1599": " white", "1600": "ctor", "1601": " wrong", "1602": " Daisy", "1603": " makes", "1604": " What", "1605": " break", "1606": " black", "1607": "arent", "1608": "ee", "1609": "ner", "1610": "Spot", "1611": "Do", "1612": " deep", "1613": "thy", "1614": " music", "1615": " pol", "1616": " delic", "1617": "cess", "1618": "ued", "1619": " forgot", "1620": " bee", "1621": " parent", "1622": " castle", "1623": "ves", "1624": "olly", "1625": " em", "1626": "iet", "1627": " wear", "1628": " hit", "1629": "ister", "1630": "oun", "1631": " quiet", "1632": " round", "1633": "ance", "1634": " stu", "1635": " danced", "1636": " vis", "1637": "ully", "1638": " wants", "1639": " leaf", "1640": " monster", "1641": " nap", "1642": " John", "1643": " understand", "1644": "ang", "1645": " bowl", "1646": "os", "1647": "rot", "1648": "ren", "1649": " bor", "1650": " talked", "1651": "itten", "1652": " dry", "1653": " faster", "1654": " cookies", "1655": " brought", "1656": "fully", "1657": " leg", "1658": "ross", "1659": " mum", "1660": "zz", "1661": " side", "1662": "ts", "1663": "From", "1664": " sign", "1665": " Inside", "1666": " smart", "1667": "cy", "1668": " rocks", "1669": " someone", "1670": "His", "1671": " poin", "1672": " sec", "1673": " sharing", "1674": " fox", "1675": " well", "1676": " res", "1677": " rel", "1678": " happen", "1679": " button", "1680": " branch", "1681": " Lila", "1682": " really", "1683": " finished", "1684": "ence", "1685": "ards", "1686": " dinner", "1687": " sister", "1688": " flying", "1689": "eddy", "1690": " contin", "1691": " worried", "1692": " ele", "1693": " To", "1694": " visit", "1695": " Maybe", "1696": " beach", "1697": " que", "1698": " secret", "1699": " el", "1700": " Sarah", "1701": " king", "1702": "John", "1703": "gy", "1704": " today", "1705": " perfect", "1706": " river", "1707": " everything", "1708": " silly", "1709": " shin", "1710": " Joe", "1711": " danger", "1712": "ipp", "1713": " children", "1714": " gu", "1715": " Soon", "1716": " field", "1717": " filled", "1718": " fur", "1719": " else", "1720": " smiles", "1721": " welc", "1722": " At", "1723": " wish", "1724": " Em", "1725": "While", "1726": " sang", "1727": " gi", "1728": "ze", "1729": " pudd", "1730": " snack", "1731": " eating", "1732": " realized", "1733": " pieces", "1734": " promised", "1735": "ord", "1736": " spr", "1737": " pig", "1738": " free", "1739": " continued", "1740": " bite", "1741": "ead", "1742": " parents", "1743": " carefully", "1744": "ated", "1745": "itting", "1746": " ear", "1747": "Just", "1748": " jar", "1749": "Maybe", "1750": " cow", "1751": "Amy", "1752": " blank", "1753": " drag", "1754": "stead", "1755": " orange", "1756": " mud", "1757": " crying", "1758": " blanket", "1759": " enough", "1760": " rolled", "1761": "cket", "1762": " soup", "1763": " sail", "1764": " purp", "1765": "imi", "1766": " yes", "1767": "ale", "1768": " drink", "1769": " snake", "1770": "ses", "1771": " boun", "1772": " pet", "1773": " crab", "1774": " throw", "1775": " laughing", "1776": " fairy", "1777": " words", "1778": " amazing", "1779": " bath", "1780": "ich", "1781": " purple", "1782": " Z", "1783": " without", "1784": "ire", "1785": " bottle", "1786": " Billy", "1787": " gift", "1788": " grandma", "1789": "Fin", "1790": "used", "1791": "ons", "1792": " past", "1793": " money", "1794": "iver", "1795": "fort", "1796": " mail", "1797": " Gra", "1798": " barked", "1799": " wagged", "1800": " att", "1801": "chool", "1802": " monkey", "1803": " doctor", "1804": "unch", "1805": " brown", "1806": " moved", "1807": "ises", "1808": " asks", "1809": " getting", "1810": " closed", "1811": " whe", "1812": " welcome", "1813": " su", "1814": " candy", "1815": " school", "1816": " morning", "1817": " owner", "1818": "gg", "1819": " lon", "1820": " mother", "1821": " higher", "1822": " sitting", "1823": " treasure", "1824": ".\u201d", "1825": " smo", "1826": "!\u201d", "1827": " dangerous", "1828": " lonely", "1829": " Ch", "1830": " living", "1831": " apples", "1832": "ush", "1833": " shop", "1834": "ased", "1835": " strange", "1836": "vel", "1837": " shining", "1838": " road", "1839": "ere", "1840": " Tommy", "1841": " creat", "1842": "una", "1843": " paw", "1844": " ra", "1845": "ey", "1846": " shoes", "1847": " pre", "1848": "ible", "1849": " -", "1850": " stre", "1851": " talking", "1852": "althy", "1853": " caught", "1854": " egg", "1855": "ol", "1856": " pass", "1857": "me", "1858": " lake", "1859": " runs", "1860": " buck", "1861": " letter", "1862": " wings", "1863": " chee", "1864": "fish", "1865": " mad", "1866": " fan", "1867": "asket", "1868": " basket", "1869": "ass", "1870": " dragon", "1871": "app", "1872": "Mommy", "1873": "set", "1874": "cks", "1875": " stone", "1876": " thinks", "1877": " stand", "1878": " delicious", "1879": " nose", "1880": " puddle", "1881": " tom", "1882": " Bl", "1883": " Mimi", "1884": " belie", "1885": " farmer", "1886": " same", "1887": " years", "1888": "board", "1889": " teddy", "1890": " bat", "1891": "isk", "1892": "itch", "1893": " mine", "1894": " sear", "1895": " coat", "1896": "ches", "1897": "igh", "1898": " days", "1899": " bring", "1900": " gentle", "1901": " fit", "1902": " start", "1903": " finally", "1904": " whist", "1905": " cray", "1906": "igg", "1907": " scream", "1908": " kite", "1909": " pill", "1910": "phant", "1911": "arm", "1912": " vill", "1913": " cho", "1914": " singing", "1915": "ella", "1916": "sw", "1917": "ined", "1918": " tasty", "1919": " ph", "1920": " ben", "1921": " trou", "1922": " shell", "1923": " herself", "1924": " hoped", "1925": " answ", "1926": " wore", "1927": " swings", "1928": "sy", "1929": " hor", "1930": " belong", "1931": "Please", "1932": " push", "1933": " bush", "1934": "iskers", "1935": " carrot", "1936": " arri", "1937": "aughty", "1938": " teach", "1939": "bow", "1940": "ract", "1941": " naughty", "1942": " elephant", "1943": " dropped", "1944": " shap", "1945": "ier", "1946": " coll", "1947": "sc", "1948": " teac", "1949": "emy", "1950": " woke", "1951": "ball", "1952": " pile", "1953": " hiding", "1954": " cour", "1955": "isa", "1956": "erry", "1957": " touc", "1958": " min", "1959": " puppy", "1960": "'ll", "1961": " seem", "1962": "llie", "1963": " twins", "1964": "ama", "1965": " lunch", "1966": " bow", "1967": " sack", "1968": " pers", "1969": " course", "1970": " cheered", "1971": " shapes", "1972": " Jen", "1973": " grew", "1974": "fused", "1975": " rope", "1976": " village", "1977": "irth", "1978": "irthday", "1979": " juice", "1980": "ipped", "1981": " rainbow", "1982": " spin", "1983": "OK", "1984": " shook", "1985": "Jack", "1986": " spoon", "1987": " bench", "1988": " street", "1989": " fence", "1990": " cute", "1991": " Fred", "1992": " rob", "1993": " nut", "1994": " cheese", "1995": " prob", "1996": " touched", "1997": "idge", "1998": "col", "1999": " joy", "2000": " Whiskers", "2001": " arrived", "2002": " seed", "2003": " war", "2004": " teacher", "2005": " corn", "2006": "Good", "2007": " forever", "2008": " able", "2009": " bell", "2010": " few", "2011": " carry", "2012": " most", "2013": " plane", "2014": " Blue", "2015": "lem", "2016": " eas", "2017": " sounds", "2018": "lla", "2019": " des", "2020": " spo", "2021": " problem", "2022": " birthday", "2023": " power", "2024": " inc", "2025": "umb", "2026": "br", "2027": "\n ", "2028": " bugs", "2029": "ilk", "2030": " wonderful", "2031": " dolls", "2032": " busy", "2033": "ato", "2034": "irp", "2035": "eb", "2036": " wra", "2037": " promise", "2038": " Thank", "2039": " feels", "2040": "ian", "2041": " Emma", "2042": "eter", "2043": " bread", "2044": " neck", "2045": "Finally", "2046": " milk", "2047": " robot", "2048": " rec", "2049": " shy", "2050": "ountain", "2051": " kiss", "2052": "irt", "2053": " heart", "2054": " band", "2055": " cave", "2056": " pocket", "2057": "ub", "2058": " helpful", "2059": "gly", "2060": " slowly", "2061": " believe", "2062": " shake", "2063": "umpy", "2064": "eared", "2065": " patient", "2066": " pop", "2067": " ob", "2068": "arp", "2069": " live", "2070": " storm", "2071": " holding", "2072": " ugly", "2073": " towards", "2074": " upset", "2075": " turt", "2076": " shr", "2077": "adow", "2078": " cover", "2079": " kitten", "2080": "ost", "2081": " Remy", "2082": " sharp", "2083": " disapp", "2084": " stories", "2085": " suc", "2086": " honey", "2087": "ove", "2088": " Bella", "2089": "read", "2090": " noises", "2091": " Le", "2092": " cir", "2093": " balls", "2094": " spark", "2095": " gray", "2096": " dist", "2097": " dirt", "2098": "oggy", "2099": " late", "2100": " driver", "2101": " seat", "2102": " bucket", "2103": " meet", "2104": " young", "2105": " amazed", "2106": " turtle", "2107": "alm", "2108": " spid", "2109": " treats", "2110": " magical", "2111": "unt", "2112": "ator", "2113": " glow", "2114": " seek", "2115": " zoom", "2116": " lem", "2117": " sandw", "2118": "fortable", "2119": "umber", "2120": " trip", "2121": " mist", "2122": "ourn", "2123": " splas", "2124": " mark", "2125": " journ", "2126": " fold", "2127": " mach", "2128": " puzz", "2129": " part", "2130": "ling", "2131": " horse", "2132": " organ", "2133": " wild", "2134": " princess", "2135": "pping", "2136": "oose", "2137": " cookie", "2138": "Sure", "2139": "ens", "2140": " hugs", "2141": " Mark", "2142": " taking", "2143": "ung", "2144": " wheel", "2145": "epend", "2146": " cloth", "2147": " Lisa", "2148": " sug", "2149": " instead", "2150": " bubb", "2151": " string", "2152": " net", "2153": " drove", "2154": "iling", "2155": " rude", "2156": " huge", "2157": " Jim", "2158": " coin", "2159": " stars", "2160": " fighting", "2161": "Be", "2162": " spicy", "2163": " lucky", "2164": "Of", "2165": " craw", "2166": "Hey", "2167": " bone", "2168": " inv", "2169": " Grandma", "2170": "ors", "2171": "not", "2172": " ca", "2173": "pper", "2174": " forget", "2175": "up", "2176": " di", "2177": "aur", "2178": " sal", "2179": " Finally", "2180": " cannot", "2181": " whistle", "2182": " card", "2183": " sick", "2184": " path", "2185": " cou", "2186": " spider", "2187": " wide", "2188": "Lila", "2189": " foot", "2190": " snowman", "2191": " songs", "2192": " life", "2193": " pillow", "2194": "ize", "2195": "ular", "2196": " Just", "2197": "Later", "2198": "est", "2199": " Ann", "2200": "ert", "2201": " fixed", "2202": " giant", "2203": "oph", "2204": "rill", "2205": " nod", "2206": " boss", "2207": " last", "2208": " comes", "2209": " joke", "2210": " moon", "2211": " taste", "2212": "den", "2213": " machine", "2214": " grumpy", "2215": " wave", "2216": " thin", "2217": " drive", "2218": " cart", "2219": " ash", "2220": " ser", "2221": " grab", "2222": " peace", "2223": "lower", "2224": " daddy", "2225": " On", "2226": " Leo", "2227": "ery", "2228": " sel", "2229": " shelf", "2230": " hidden", "2231": "erest", "2232": " suddenly", "2233": " wasn", "2234": " write", "2235": " landed", "2236": " confused", "2237": " ring", "2238": " change", "2239": " worm", "2240": " interest", "2241": " chased", "2242": "oop", "2243": " fruits", "2244": " sour", "2245": "ity", "2246": " myster", "2247": " bark", "2248": " rad", "2249": " smooth", "2250": " Come", "2251": " adventures", "2252": " val", "2253": " stepped", "2254": " fle", "2255": "ope", "2256": " oven", "2257": " takes", "2258": " missed", "2259": " selfish", "2260": "kin", "2261": " sheep", "2262": " messy", "2263": "To", "2264": " across", "2265": " ent", "2266": " exp", "2267": "to", "2268": " ce", "2269": " later", "2270": "elly", "2271": " N", "2272": "ife", "2273": " sticks", "2274": " tie", "2275": "St", "2276": "ever", "2277": " Luna", "2278": " step", "2279": " bought", "2280": " drew", "2281": " tea", "2282": "pect", "2283": " ban", "2284": "irpy", "2285": "box", "2286": "?\u201d", "2287": " wash", "2288": " lay", "2289": " pour", "2290": " beak", "2291": "ose", "2292": " jog", "2293": " grate", "2294": " ducks", "2295": " spe", "2296": " legs", "2297": "ugg", "2298": " fil", "2299": " Bu", "2300": " emp", "2301": "mer", "2302": " hope", "2303": " empty", "2304": " slid", "2305": " feather", "2306": " sleepy", "2307": " drum", "2308": "amed", "2309": "ars", "2310": "eth", "2311": " zoo", "2312": " pan", "2313": " phone", "2314": " grateful", "2315": " fing", "2316": "ions", "2317": " lemon", "2318": "let", "2319": " Cat", "2320": " clever", "2321": " Molly", "2322": " smelly", "2323": " imag", "2324": " splash", "2325": " interesting", "2326": " Jill", "2327": " save", "2328": " chick", "2329": " calm", "2330": " med", "2331": " watching", "2332": "Soon", "2333": "izzy", "2334": "izz", "2335": " plate", "2336": " ign", "2337": "yard", "2338": " clouds", "2339": " banan", "2340": " line", "2341": " faces", "2342": " ba", "2343": " act", "2344": " lift", "2345": " though", "2346": " wolf", "2347": " backyard", "2348": "wel", "2349": " seemed", "2350": " dogs", "2351": " spray", "2352": "Come", "2353": " prot", "2354": " whole", "2355": " mot", "2356": " fancy", "2357": " Daddy", "2358": " quest", "2359": " arms", "2360": " puzzle", "2361": " healthy", "2362": " supp", "2363": "ward", "2364": " finish", "2365": "erly", "2366": " along", "2367": "llo", "2368": " rocket", "2369": " explain", "2370": "dge", "2371": " easy", "2372": " jewel", "2373": "ont", "2374": " pract", "2375": " jelly", "2376": " Chirpy", "2377": " tid", "2378": " fake", "2379": " crayons", "2380": " wondered", "2381": " maybe", "2382": " scar", "2383": " ship", "2384": " nothing", "2385": "onest", "2386": " emb", "2387": "iger", "2388": " pool", "2389": " longer", "2390": " anyone", "2391": " Be", "2392": " Jerry", "2393": "ually", "2394": " front", "2395": " working", "2396": " gives", "2397": "irr", "2398": " pack", "2399": " such", "2400": " Bunny", "2401": "ocked", "2402": "ment", "2403": " bossy", "2404": " Doggy", "2405": " trouble", "2406": " smelled", "2407": " saved", "2408": " pin", "2409": "rass", "2410": " neigh", "2411": "arrass", "2412": "iting", "2413": " honest", "2414": " av", "2415": "arge", "2416": " embarrass", "2417": " van", "2418": " forgive", "2419": " tidy", "2420": " weak", "2421": "urse", "2422": " puts", "2423": "unk", "2424": " kick", "2425": " shirt", "2426": " With", "2427": " mind", "2428": " Ollie", "2429": " neighb", "2430": " plants", "2431": " sol", "2432": " Momo", "2433": " gently", "2434": " cozy", "2435": "orrow", "2436": "ming", "2437": " explor", "2438": "sp", "2439": " mistake", "2440": " yog", "2441": "oc", "2442": "oomy", "2443": " pointed", "2444": " lad", "2445": " af", "2446": " stood", "2447": "ork", "2448": " onto", "2449": " waiting", "2450": " jumping", "2451": " prince", "2452": " cross", "2453": " lock", "2454": " cheer", "2455": " queen", "2456": " Why", "2457": " Mary", "2458": " wing", "2459": "ones", "2460": "we", "2461": " large", "2462": " lovely", "2463": "ult", "2464": " sur", "2465": " ret", "2466": "And", "2467": " deer", "2468": " chew", "2469": " couch", "2470": " bal", "2471": "aughter", "2472": " stret", "2473": "era", "2474": " Their", "2475": " places", "2476": " My", "2477": " ladder", "2478": "oof", "2479": " return", "2480": "raid", "2481": " ants", "2482": " dish", "2483": " afraid", "2484": " cleaned", "2485": " tomorrow", "2486": " building", "2487": " sandwich", "2488": " person", "2489": "Sally", "2490": "ned", "2491": " pretended", "2492": " bounce", "2493": " wip", "2494": "gest", "2495": " match", "2496": " rich", "2497": "uce", "2498": " pizz", "2499": " gather", "2500": " search", "2501": " boring", "2502": "oman", "2503": " Somet", "2504": " teeth", "2505": " hum", "2506": "Kitty", "2507": "My", "2508": "aced", "2509": " daughter", "2510": " woman", "2511": " scarf", "2512": " goes", "2513": " Together", "2514": " law", "2515": " stra", "2516": " swimming", "2517": " furry", "2518": " splashed", "2519": " pri", "2520": " loves", "2521": " true", "2522": " screamed", "2523": " lazy", "2524": " gen", "2525": " answer", "2526": " number", "2527": " eag", "2528": " ashamed", "2529": " pizza", "2530": "aw", "2531": " appeared", "2532": " fear", "2533": " nearby", "2534": " powerful", "2535": " flag", "2536": " St", "2537": " hang", "2538": "vous", "2539": " clown", "2540": "ek", "2541": " chase", "2542": " motor", "2543": " wand", "2544": " TV", "2545": " rub", "2546": " success", "2547": " chocol", "2548": " If", "2549": " creative", "2550": " trust", "2551": " wearing", "2552": " noisy", "2553": " matter", "2554": "pa", "2555": " dig", "2556": " hello", "2557": " ner", "2558": " tool", "2559": " saf", "2560": " Bird", "2561": "ado", "2562": " nervous", "2563": "elp", "2564": " test", "2565": " smiling", "2566": " sold", "2567": "icked", "2568": "oppy", "2569": "osaur", "2570": " circle", "2571": "mb", "2572": " map", "2573": " drank", "2574": " class", "2575": " tries", "2576": " chocolate", "2577": " Please", "2578": " impress", "2579": " knee", "2580": " gener", "2581": " dinosaur", "2582": " polite", "2583": " mirr", "2584": " Bobby", "2585": " Tiny", "2586": " balloons", "2587": " gold", "2588": " rare", "2589": " protect", "2590": " cand", "2591": "Stop", "2592": " carried", "2593": " Go", "2594": "ensive", "2595": " ap", "2596": " shadow", "2597": " mirror", "2598": " Don", "2599": " bald", "2600": " gun", "2601": "ina", "2602": " expensive", "2603": " reg", "2604": "iff", "2605": " mysterious", "2606": " Sp", "2607": " pump", "2608": " note", "2609": " hero", "2610": " march", "2611": " har", "2612": "arl", "2613": " icy", "2614": " respect", "2615": " weird", "2616": " snee", "2617": " cri", "2618": " gate", "2619": " soap", "2620": "rag", "2621": "ute", "2622": "issors", "2623": " these", "2624": " poor", "2625": " towel", "2626": " whale", "2627": " feet", "2628": " tape", "2629": " dizzy", "2630": "itter", "2631": " generous", "2632": "ndpa", "2633": " pres", "2634": " Benny", "2635": "nic", "2636": " disco", "2637": "Help", "2638": "ventually", "2639": " picnic", "2640": " mic", "2641": " lead", "2642": " sque", "2643": " embarrassed", "2644": " journey", "2645": " sugar", "2646": "isp", "2647": "scape", "2648": " boot", "2649": " tent", "2650": " peaceful", "2651": " fat", "2652": " Bear", "2653": " scissors", "2654": " tasted", "2655": " yelled", "2656": "Tommy", "2657": " tick", "2658": " mel", "2659": " brush", "2660": " dancing", "2661": "ness", "2662": " glue", "2663": " hur", "2664": " rough", "2665": " clap", "2666": " bridge", "2667": "ote", "2668": " decor", "2669": " closet", "2670": " crown", "2671": " stir", "2672": "ual", "2673": "imp", "2674": " print", "2675": " Sometimes", "2676": "owed", "2677": "airs", "2678": " How", "2679": "ume", "2680": " cap", "2681": " lamp", "2682": " vase", "2683": " scare", "2684": "lebr", "2685": " relie", "2686": "lves", "2687": "any", "2688": " eld", "2689": " tele", "2690": " celebr", "2691": " gigg", "2692": " whisp", "2693": " log", "2694": " sco", "2695": " blow", "2696": " painted", "2697": " Ducky", "2698": " pay", "2699": "erries", "2700": " wis", "2701": " berries", "2702": " mixed", "2703": " spread", "2704": " wouldn", "2705": " cage", "2706": " bake", "2707": "rob", "2708": "getable", "2709": " mountain", "2710": " adm", "2711": " drawing", "2712": " become", "2713": " famous", "2714": " knocked", "2715": " bean", "2716": " norm", "2717": " vegetable", "2718": "asp", "2719": " kicked", "2720": "ustr", "2721": " shark", "2722": "ser", "2723": " incred", "2724": " lose", "2725": " normal", "2726": " wrap", "2727": "ced", "2728": " group", "2729": " thick", "2730": " 3", "2731": " fine", "2732": " glass", "2733": " ignor", "2734": " clock", "2735": " team", "2736": " elderly", "2737": " clear", "2738": " corner", "2739": " frustr", "2740": " mighty", "2741": "robe", "2742": " cone", "2743": " incredible", "2744": " Br", "2745": "ighed", "2746": "Dad", "2747": " moms", "2748": " balance", "2749": " sock", "2750": " space", "2751": " jam", "2752": "ragile", "2753": " fright", "2754": " organized", "2755": " branches", "2756": " roar", "2757": "port", "2758": " sword", "2759": "alous", "2760": " Mama", "2761": " guess", "2762": " fool", "2763": " sell", "2764": " feed", "2765": " Some", "2766": " which", "2767": " horn", "2768": " present", "2769": " jealous", "2770": " yarn", "2771": "ony", "2772": " fragile", "2773": " burn", "2774": " understood", "2775": " mis", "2776": " stubb", "2777": " ter", "2778": " frustrated", "2779": "Where", "2780": "ray", "2781": " hose", "2782": "cient", "2783": " spent", "2784": " shoe", "2785": " taught", "2786": " stubborn", "2787": " twist", "2788": " creature", "2789": " chest", "2790": " spoiled", "2791": " relieved", "2792": " ancient", "2793": "ique", "2794": " wake", "2795": " fier", "2796": " pray", "2797": " fierce", "2798": " eggs", "2799": " cab", "2800": " terri", "2801": " barn", "2802": " pumpkin", "2803": " comfortable", "2804": " ord", "2805": "ym", "2806": " frightened", "2807": "orry", "2808": " toug", "2809": " unique", "2810": " measure", "2811": " goat", "2812": " wagon", "2813": " unus", "2814": " breath", "2815": " foolish", "2816": " useful", "2817": " exploring", "2818": "dle", "2819": " straw", "2820": " unusual", "2821": " dug", "2822": " clay", "2823": " discover", "2824": " tomato", "2825": " Pe", "2826": " dead", "2827": " finding", "2828": " police", "2829": " wrote", "2830": " clum", "2831": " exam", "2832": "lace", "2833": " waves", "2834": " square", "2835": " hears", "2836": " cabin", "2837": " tells", "2838": " necklace", "2839": " dull", "2840": " clumsy", "2841": " tough", "2842": " bubbles", "2843": " nosy", "2844": "kn", "2845": " searched", "2846": "Together", "2847": " washed", "2848": " bathroom", "2849": " paws", "2850": "bby", "2851": "ond", "2852": "unn", "2853": "anged", "2854": " board", "2855": "fic", "2856": "known", "2857": " asking", "2858": " crazy", "2859": " thankful", "2860": " sunf", "2861": " bitter", "2862": "yal", "2863": " pir", "2864": "berry", "2865": "alk", "2866": " ind", "2867": " diffic", "2868": " rose", "2869": "cil", "2870": " swan", "2871": " bloom", "2872": " unknown", "2873": " Ella", "2874": " covered", "2875": " difficult", "2876": " add", "2877": " pencil", "2878": " finger", "2879": " ham", "2880": " hoop", "2881": " jet", "2882": " witch", "2883": " drop", "2884": "Me", "2885": " '", "2886": " chicken", "2887": " gloomy", "2888": "apped", "2889": " loyal", "2890": "als", "2891": "Here", "2892": " wealthy", "2893": "com", "2894": "light", "2895": " unl", "2896": " cats", "2897": " ending", "2898": " guit", "2899": "bled", "2900": "shine", "2901": " dove", "2902": " joined", "2903": " cher", "2904": "anut", "2905": " mov", "2906": " terrible", "2907": " yours", "2908": "iant", "2909": " U", "2910": " Rex", "2911": " salad", "2912": " Andy", "2913": " nuts", "2914": " rat", "2915": "ground", "2916": " tiger", "2917": " potato", "2918": " mask", "2919": "xible", "2920": "selves", "2921": " value", "2922": " changed", "2923": " moving", "2924": " exciting", "2925": "ormous", "2926": " Many", "2927": " body", "2928": " Tr", "2929": " toast", "2930": " record", "2931": "erp", "2932": " zip", "2933": " disg", "2934": " cheap", "2935": " guitar", "2936": "irsty", "2937": " knowing", "2938": " adventur", "2939": " yourself", "2940": " enormous", "2941": " hairy", "2942": "Every", "2943": " shoot", "2944": " Brown", "2945": " bored", "2946": " pepper", "2947": " remind", "2948": "ory", "2949": "land", "2950": " acorn", "2951": " adventurous", "2952": " sunshine", "2953": " smaller", "2954": " stuff", "2955": " hats", "2956": " solve", "2957": " Jimmy", "2958": " flexible", "2959": " cost", "2960": "rilliant", "2961": " knife", "2962": " perform", "2963": " snacks", "2964": " nods", "2965": " shore", "2966": " brilliant", "2967": " thirsty", "2968": " delicate", "2969": " frown", "2970": " disgust", "2971": " collect", "2972": " stri", "2973": " seeds", "2974": " counted", "2975": " asleep", "2976": " banana", "2977": "reen", "2978": " mailbox", "2979": "iness", "2980": " dough", "2981": " trick", "2982": " neighbor", "2983": "ungle", "2984": " heal", "2985": "live", "2986": "Who", "2987": " stage", "2988": "ident", "2989": " market", "2990": " cube", "2991": " stat", "2992": " jungle", "2993": " squee", "2994": "mbre", "2995": " explained", "2996": "ates", "2997": " umbre", "2998": " disgusting", "2999": "Jim", "3000": "fted", "3001": " lab", "3002": " jolly", "3003": " flash", "3004": "und", "3005": " fridge", "3006": "inal", "3007": "pid", "3008": "ilt", "3009": " crane", "3010": "corn", "3011": " suit", "3012": " rh", "3013": "iddle", "3014": " sunflower", "3015": " times", "3016": " Al", "3017": "erpill", "3018": " caterpill", "3019": " relax", "3020": " shiver", "3021": " four", "3022": " island", "3023": "iginal", "3024": " harm", "3025": "ict", "3026": " While", "3027": "ying", "3028": " stupid", "3029": " medic", "3030": " Instead", "3031": " comb", "3032": " goose", "3033": " cro", "3034": "edient", "3035": " Will", "3036": " stove", "3037": "If", "3038": "Are", "3039": " independ", "3040": "Mum", "3041": "most", "3042": " spring", "3043": " gem", "3044": " batter", "3045": " sighed", "3046": " vegetables", "3047": " stones", "3048": "pes", "3049": " shine", "3050": "How", "3051": " medicine", "3052": " depend", "3053": " rug", "3054": " Your", "3055": " careless", "3056": " original", "3057": " stamp", "3058": " gar", "3059": " cries", "3060": "Inside", "3061": "gu", "3062": " carrots", "3063": " scr", "3064": " successful", "3065": " sauce", "3066": " jeep", "3067": " popcorn", "3068": " meal", "3069": " obedient", "3070": " almost", "3071": " middle", "3072": " magn", "3073": " study", "3074": " independent", "3075": " fearful", "3076": " jack", "3077": "met", "3078": "inky", "3079": "Sorry", "3080": " Sammy", "3081": " escape", "3082": " caterpillar", "3083": " serious", "3084": " peanut", "3085": " bedroom", "3086": " eager", "3087": "aken", "3088": " gets", "3089": " parrot", "3090": " statue", "3091": " helmet", "3092": " pebb", "3093": " No", "3094": " fountain", "3095": " raven", "3096": " ang", "3097": " pasta", "3098": " umbrella", "3099": " compet", "3100": "There", "3101": " jacket", "3102": " belonged", "3103": " dest", "3104": " filthy", "3105": " design", "3106": " borrow", "3107": " cam", "3108": "erable", "3109": " houses", "3110": " prize", "3111": " hay", "3112": " brace", "3113": " standing", "3114": " miserable", "3115": " raced", "3116": " taken", "3117": "ages", "3118": " fork", "3119": " crayon", "3120": " painting", "3121": "io", "3122": " triang", "3123": " impressive", "3124": " choose", "3125": " fig", "3126": " tied", "3127": "iable", "3128": " spotted", "3129": " lifted", "3130": " slipped", "3131": "ours", "3132": " tank", "3133": " thoughtful", "3134": " dependable", "3135": " steal", "3136": " garage", "3137": "enny", "3138": " built", "3139": " mush", "3140": " er", "3141": "ipe", "3142": " mole", "3143": " crawled", "3144": " scale", "3145": " boats", "3146": " pian", "3147": " pant", "3148": " hammer", "3149": " bottom", "3150": "lph", "3151": " cheerful", "3152": " using", "3153": " smoke", "3154": " picks", "3155": " moder", "3156": "berries", "3157": " shows", "3158": "rn", "3159": " piano", "3160": " magnet", "3161": "dile", "3162": "codile", "3163": " hurts", "3164": "inary", "3165": " ref", "3166": " crack", "3167": " eng", "3168": " aunt", "3169": " melon", "3170": " waff", "3171": " modern", "3172": " dolph", "3173": "unnel", "3174": "cream", "3175": "pack", "3176": " tunnel", "3177": "oin", "3178": " arrow", "3179": " reliable", "3180": " hopping", "3181": " mushroom", "3182": " jug", "3183": "Timmy", "3184": " squash", "3185": " gum", "3186": " sink", "3187": " movie", "3188": " tax", "3189": " flute", "3190": " beet", "3191": " lean", "3192": "Their", "3193": "iv", "3194": " popular", "3195": "opter", "3196": "icopter", "3197": " cryst", "3198": " ones", "3199": " sil", "3200": " competit", "3201": " helicopter", "3202": "aser", "3203": " needs", "3204": "ipop", "3205": "llipop", "3206": " crocodile", "3207": " liz", "3208": "Molly", "3209": " press", "3210": " troubled", "3211": " pige", "3212": " locked", "3213": " tricks", "3214": " lollipop", "3215": " playful", "3216": " humble", "3217": " taxi", "3218": " kissed", "3219": " low", "3220": "appy", "3221": "comfortable", "3222": "amond", "3223": " uncomfortable", "3224": " rid", "3225": "host", "3226": " wander", "3227": "atch", "3228": " angel", "3229": "edy", "3230": "cles", "3231": " torn", "3232": " grace", "3233": " anx", "3234": " wrapped", "3235": " muff", "3236": " twig", "3237": " pants", "3238": " disappoin", "3239": " Sn", "3240": " helps", "3241": " diamond", "3242": " camera", "3243": "atter", "3244": "oto", "3245": " anxious", "3246": " ghost", "3247": " tears", "3248": " ruined", "3249": "cident", "3250": " Jenny", "3251": "ilty", "3252": " quar", "3253": "aff", "3254": " Even", "3255": " fis", "3256": "opl", "3257": " belt", "3258": "eropl", "3259": " env", "3260": " guilty", "3261": " bull", "3262": " aeropl", "3263": " helpless", "3264": " happiness", "3265": " lizard", "3266": " boys", "3267": "cut", "3268": "ext", "3269": " cere", "3270": " walks", "3271": "cean", "3272": " passed", "3273": " meant", "3274": " ocean", "3275": " fluffy", "3276": " wire", "3277": " nail", "3278": " bracelet", "3279": " deaf", "3280": "zed", "3281": " stretch", "3282": " candle", "3283": " cact", "3284": "tt", "3285": " beetle", "3286": " mop", "3287": " harmless", "3288": "umpet", "3289": " ordinary", "3290": " answered", "3291": " collar", "3292": " cop", "3293": " bees", "3294": " tire", "3295": " shape", "3296": " quarrel", "3297": " radio", "3298": " flashlight", "3299": " crystal", "3300": " harder", "3301": " poured", "3302": " trumpet", "3303": " engine", "3304": "Mama", "3305": " persist", "3306": " hunt", "3307": " tooth", "3308": " cereal", "3309": " invited", "3310": " comput", "3311": " tag", "3312": " office", "3313": " melt", "3314": " spill", "3315": " charm", "3316": "coa", "3317": " lit", "3318": " scoot", "3319": " comet", "3320": " triangle", "3321": "ief", "3322": " mug", "3323": " rep", "3324": "ube", "3325": " yogurt", "3326": " spend", "3327": " compass", "3328": " accident", "3329": " shade", "3330": "hett", "3331": "aghett", "3332": "aghetti", "3333": " disappointed", "3334": " licked", "3335": " cactus", "3336": " pale", "3337": " cush", "3338": " figure", "3339": " regular", "3340": " giving", "3341": " avoc", "3342": " pro", "3343": " sheet", "3344": " whispered", "3345": "aze", "3346": "uth", "3347": "ellig", "3348": " create", "3349": " barber", "3350": " intellig", "3351": " pipe", "3352": " rode", "3353": " roof", "3354": "Jane", "3355": " thread", "3356": "ither", "3357": " vi", "3358": " load", "3359": " libr", "3360": " gifted", "3361": "ccol", "3362": " practiced", "3363": " delight", "3364": "ccoli", "3365": " harsh", "3366": "asses", "3367": " pow", "3368": " dust", "3369": " True", "3370": " bicy", "3371": "azz", "3372": " spaghetti", "3373": " compassion", "3374": " sailed", "3375": "urkey", "3376": "ubby", "3377": " forward", "3378": " persistent", "3379": " speed", "3380": " mitten", "3381": " cocoa", "3382": " envel", "3383": " questions", "3384": " computer", "3385": " coo", "3386": " feathers", "3387": "hip", "3388": " glove", "3389": "ging", "3390": "Bobo", "3391": " rice", "3392": " shrimp", "3393": " desk", "3394": " stream", "3395": " inse", "3396": " pigeon", "3397": " charming", "3398": " ears", "3399": " carp", "3400": "lcan", "3401": " raft", "3402": " envious", "3403": " knot", "3404": " turkey", "3405": " stronger", "3406": "omes", "3407": " coins", "3408": " tap", "3409": "lcano", "3410": "weet", "3411": " trap", "3412": "umbers", "3413": " aeroplane", "3414": " trunk", "3415": " wheat", "3416": " boxes", "3417": " chubby", "3418": " carpet", "3419": " restless", "3420": " intelligent", "3421": " tube", "3422": " spun", "3423": " dreams", "3424": " friendship", "3425": "ulif", "3426": "olin", "3427": " half", "3428": " loop", "3429": " crawl", "3430": " broccoli", "3431": " onion", "3432": " deliver", "3433": "anger", "3434": " acce", "3435": " vide", "3436": " volcano", "3437": " Jake", "3438": " sle", "3439": " track", "3440": " bri", "3441": " caulif", "3442": " vine", "3443": "ye", "3444": " ticket", "3445": " thief", "3446": "essie", "3447": "cycle", "3448": " louder", "3449": " insect", "3450": " numbers", "3451": "asing", "3452": " yaw", "3453": " haircut", "3454": "ital", "3455": " sleeping", "3456": " mill", "3457": " eventually", "3458": " alert", "3459": " excite", "3460": " pebble", "3461": " hosp", "3462": " attract", "3463": " planet", "3464": " Today", "3465": " univer", "3466": "isted", "3467": "ulu", "3468": " hospital", "3469": " eraser", "3470": " returned", "3471": " destro", "3472": " graceful", "3473": " happening", "3474": "ache", "3475": " OK", "3476": " Emily", "3477": " decide", "3478": " learning", "3479": " screen", "3480": "rework", "3481": " nicely", "3482": " leop", "3483": " cauliflower", "3484": " competitive", "3485": " poem", "3486": " celebrate", "3487": " curt", "3488": " peach", "3489": " soldier", "3490": " saus", "3491": " parade", "3492": "atient", "3493": " attractive", "3494": " curtain", "3495": " dolphin", "3496": " base", "3497": " violin", "3498": " ways", "3499": "Go", "3500": "ats", "3501": " travel", "3502": "ten", "3503": " rod", "3504": " ignorant", "3505": "ulb", "3506": " wheels", "3507": " yach", "3508": " scatter", "3509": " deter", "3510": " compassionate", "3511": " barrel", "3512": " envelope", "3513": " bubble", "3514": " lying", "3515": " firework", "3516": " sort", "3517": " question", "3518": "zzy", "3519": " Pipp", "3520": " scooter", "3521": " determ", "3522": " rag", "3523": " thu", "3524": " bicycle", "3525": "elery", "3526": " needle", "3527": " Fr", "3528": " judge", "3529": " bulb", "3530": " leopard", "3531": " tem", "3532": " yacht", "3533": " pony", "3534": " cricket", "3535": " order", "3536": " homes", "3537": " ador", "3538": "tern", "3539": " truth", "3540": " hook", "3541": "dom", "3542": " rubbed", "3543": "ete", "3544": "igator", "3545": " bushes", "3546": "Sarah", "3547": " uncle", "3548": " cushion", "3549": " spell", "3550": " grown", "3551": " cooked", "3552": " adorable", "3553": " chalk", "3554": " soar", "3555": " purse", "3556": " skin", "3557": " themselves", "3558": " impatient", "3559": " celery", "3560": " tray", "3561": " shells", "3562": " pengu", "3563": " sniff", "3564": " prun", "3565": " walls", "3566": " seal", "3567": " lively", "3568": " case", "3569": " alligator", "3570": " distant", "3571": " radish", "3572": " saying", "3573": " speak", "3574": " motorcycle", "3575": " meat", "3576": " send", "3577": "illa", "3578": " spinning", "3579": " forth", "3580": " counting", "3581": " enth", "3582": " bounced", "3583": " chain", "3584": " ed", "3585": " cleaning", "3586": "ebra", "3587": " film", "3588": " slept", "3589": " pit", "3590": " surf", "3591": " marry", "3592": "usia", "3593": " wallet", "3594": " enthusia", "3595": " metal", "3596": "urb", "3597": "ebook", "3598": " bin", "3599": " week", "3600": " notebook", "3601": " wiped", "3602": " skip", "3603": "ision", "3604": "chair", "3605": " biggest", "3606": " impro", "3607": " avocado", "3608": " behave", "3609": " destroy", "3610": "vator", "3611": " bandage", "3612": " laughs", "3613": " steak", "3614": " pattern", "3615": " Sh", "3616": " post", "3617": " elevator", "3618": " Buzz", "3619": "usie", "3620": " dive", "3621": " shut", "3622": " skipped", "3623": " unlock", "3624": " diary", "3625": "dest", "3626": "ject", "3627": " zebra", "3628": " bags", "3629": "ating", "3630": " armchair", "3631": "rage", "3632": "aged", "3633": " disturb", "3634": " oy", "3635": " pole", "3636": " showing", "3637": " gathered", "3638": " club", "3639": " nurse", "3640": "bul", "3641": " earth", "3642": " enc", "3643": " stranger", "3644": " sweater", "3645": " jellyfish", "3646": " screw", "3647": " temp", "3648": " Poppy", "3649": " compl", "3650": " mixer", "3651": "Give", "3652": " skull", "3653": " lime", "3654": " bump", "3655": "bulance", "3656": " ambulance", "3657": "nam", "3658": " father", "3659": " journal", "3660": "Gra", "3661": " loudly", "3662": "ito", "3663": " folder", "3664": " shield", "3665": " Bet", "3666": " Lulu", "3667": " library", "3668": " Peter", "3669": " buttons", "3670": " playground", "3671": " trucks", "3672": " ink", "3673": " lights", "3674": " tummy", "3675": " pointing", "3676": " city", "3677": " decorate", "3678": " station", "3679": "irit", "3680": " prep", "3681": " falls", "3682": "quito", "3683": " Polly", "3684": "Billy", "3685": " fu", "3686": " Fo", "3687": "ention", "3688": "nger", "3689": " Birdy", "3690": "lies", "3691": " herb", "3692": "nament", "3693": " ornament", "3694": " modest", "3695": " guard", "3696": " mos", "3697": " knows", "3698": " cord", "3699": " polish", "3700": " marble", "3701": "oby", "3702": " mosquito", "3703": "umbled", "3704": " salt", "3705": " attic", "3706": " whenever", "3707": " vest", "3708": "ctop", "3709": " resc", "3710": " yet", "3711": " ple", "3712": " disappeared", "3713": "ceed", "3714": " strawberry", "3715": " once", "3716": " Mum", "3717": " kay", "3718": " brothers", "3719": " itch", "3720": " pirate", "3721": " football", "3722": " split", "3723": "kele", "3724": "keleton", "3725": " hipp", "3726": " aut", "3727": " led", "3728": "uring", "3729": "ctopus", "3730": " driving", "3731": " cable", "3732": " support", "3733": " calling", "3734": " cupboard", "3735": "aky", "3736": "ushed", "3737": " wishes", "3738": " complet", "3739": " tripped", "3740": " root", "3741": " kayak", "3742": " octopus", "3743": "obile", "3744": " added", "3745": " edge", "3746": " mild", "3747": "stic", "3748": " determined", "3749": " succeed", "3750": "?\".", "3751": " reading", "3752": "omobile", "3753": " coal", "3754": "Well", "3755": "gl", "3756": "utes", "3757": "par", "3758": " suggest", "3759": " stack", "3760": " thunder", "3761": " kindness", "3762": " automobile", "3763": " complain", "3764": " enthusiastic", "3765": " sneeze", "3766": " cartoon", "3767": " yoga", "3768": " Little", "3769": " growl", "3770": "htub", "3771": " flea", "3772": "la", "3773": " meadow", "3774": " drawer", "3775": " bathtub", "3776": " ribb", "3777": "ophone", "3778": " means", "3779": " hall", "3780": " golf", "3781": " skeleton", "3782": " math", "3783": " veil", "3784": " hunter", "3785": " gor", "3786": " flame", "3787": " poke", "3788": " video", "3789": " chess", "3790": " troph", "3791": " cups", "3792": " glowing", "3793": " matt", "3794": " oyster", "3795": "work", "3796": " penny", "3797": " spear", "3798": " itself", "3799": " drawings", "3800": " hippo", "3801": " repair", "3802": " switch", "3803": "glasses", "3804": " sunglasses", "3805": " teleph", "3806": " costume", "3807": " dess", "3808": " zipp", "3809": ",\u201d", "3810": " repe", "3811": " muffin", "3812": " arg", "3813": " pastry", "3814": " pun", "3815": " rolling", "3816": " minutes", "3817": " packed", "3818": " makeup", "3819": "iron", "3820": "ric", "3821": " People", "3822": " waffle", "3823": "case", "3824": " handle", "3825": " pear", "3826": " maze", "3827": " telephone", "3828": " pine", "3829": "ait", "3830": " gear", "3831": " hedge", "3832": " mattress", "3833": " package", "3834": "aving", "3835": " Miss", "3836": " shocked", "3837": "ines", "3838": " trophy", "3839": " powder", "3840": " knight", "3841": " cob", "3842": " missile", "3843": " managed", "3844": " frame", "3845": " encou", "3846": " wife", "3847": " ok", "3848": " separ", "3849": "web", "3850": " stairs", "3851": " rot", "3852": " camp", "3853": "urch", "3854": "rophone", "3855": " magaz", "3856": " strugg", "3857": " colour", "3858": " grapes", "3859": "time", "3860": " file", "3861": "head", "3862": " Tina", "3863": " basketball", "3864": "Bye", "3865": "old", "3866": "per", "3867": " cobweb", "3868": "Re", "3869": "Jimmy", "3870": " Tweet", "3871": "See", "3872": " perm", "3873": " wool", "3874": " Dan", "3875": " microphone", "3876": "esday", "3877": " eye", "3878": " leash", "3879": " gasp", "3880": "iew", "3881": "keep", "3882": " weep", "3883": " barking", "3884": "ature", "3885": " safely", "3886": " tear", "3887": " view", "3888": "ffe", "3889": " slides", "3890": " steps", "3891": "istol", "3892": "ffee", "3893": " bananas", "3894": " staff", "3895": " spirit", "3896": " task", "3897": " giggled", "3898": " hoc", "3899": " hockey", "3900": " vend", "3901": " those", "3902": " gorilla", "3903": "Jill", "3904": " cooler", "3905": " Rose", "3906": "was", "3907": "cing", "3908": " early", "3909": " marched", "3910": "rosc", "3911": " mint", "3912": " Look", "3913": "washer", "3914": " flour", "3915": " hotel", "3916": "hic", "3917": " sailor", "3918": " dessert", "3919": " photo", "3920": "roscope", "3921": " vehic", "3922": "ilot", "3923": " often", "3924": " church", "3925": " Pete", "3926": " cooking", "3927": " remain", "3928": " five", "3929": " sausage", "3930": "otter", "3931": " ten", "3932": " tools", "3933": " medal", "3934": " either", "3935": " fireman", "3936": "chor", "3937": " grandpa", "3938": " otter", "3939": " baseball", "3940": " pretending", "3941": " pistol", "3942": " dishwasher", "3943": " rever", "3944": " organize", "3945": " pee", "3946": " vendor", "3947": " knock", "3948": " sight", "3949": " grill", "3950": " temple", "3951": " battery", "3952": " thinking", "3953": " opens", "3954": " ow", "3955": " realised", "3956": " iron", "3957": " laser", "3958": " sne", "3959": " sandbox", "3960": " oil", "3961": " patch", "3962": " hours", "3963": " rise", "3964": " whip", "3965": "'d", "3966": "ctory", "3967": " Give", "3968": " anchor", "3969": " trash", "3970": "ense", "3971": " short", "3972": "ney", "3973": " Betty", "3974": " rhin", "3975": " factory", "3976": "seum", "3977": " may", "3978": " ward", "3979": "ately", "3980": " cardboard", "3981": "ugged", "3982": " lotion", "3983": "Al", "3984": " message", "3985": " valu", "3986": " wardrobe", "3987": " cell", "3988": " museum", "3989": "apers", "3990": " ur", "3991": "ination", "3992": " hanging", "3993": "ucet", "3994": "ailable", "3995": " Sunny", "3996": " Zoom", "3997": " hive", "3998": "eer", "3999": " towers", "4000": "keeper", "4001": " blackboard", "4002": " mem", "4003": " excitement", "4004": " coffee", "4005": " pilot", "4006": "ready", "4007": "Fluffy", "4008": " napkin", "4009": " penguin", "4010": "ron", "4011": " check", "4012": " reward", "4013": "loo", "4014": " quit", "4015": " Pippin", "4016": " cane", "4017": " picking", "4018": "place", "4019": " Snow", "4020": "azor", "4021": " faucet", "4022": " ig", "4023": " passport", "4024": " Rob", "4025": " stumbled", "4026": " dreamed", "4027": " igloo", "4028": " Bessie", "4029": "aroo", "4030": "angaroo", "4031": " freez", "4032": " juicy", "4033": " allowed", "4034": "play", "4035": " holds", "4036": " already", "4037": " available", "4038": " sett", "4039": " bathe", "4040": " tornado", "4041": "imney", "4042": " fingers", "4043": "htray", "4044": " hanger", "4045": " newsp", "4046": " size", "4047": " laund", "4048": " lend", "4049": " chimney", "4050": " laundry", "4051": " oak", "4052": " fisher", "4053": " kangaroo", "4054": " men", "4055": " Everywhere", "4056": " telling", "4057": "Em", "4058": " novel", "4059": "body", "4060": " mummy", "4061": " pal", "4062": " mule", "4063": " cherries", "4064": " notice", "4065": " practice", "4066": " spilled", "4067": " reind", "4068": " complete", "4069": " enjoying", "4070": " microscope", "4071": "arian", "4072": "ampoo", "4073": " gain", "4074": " sub", "4075": " fireplace", "4076": " imagine", "4077": "anda", "4078": " display", "4079": "ocer", "4080": " Zip", "4081": " fastest", "4082": " magazine", "4083": " hurry", "4084": " cabinet", "4085": " shrink", "4086": " ashtray", "4087": "Wait", "4088": " cows", "4089": " Spike", "4090": "Joe", "4091": "gen", "4092": " palace", "4093": " improve", "4094": "aches", "4095": " rake", "4096": " reindeer", "4097": " falling", "4098": "oceros", "4099": " skirt", "4100": "ured", "4101": " discovered", "4102": " stared", "4103": " roared", "4104": "aid", "4105": " silver", "4106": " tub", "4107": " trail", "4108": "Is", "4109": " miner", "4110": "come", "4111": " bill", "4112": "iction", "4113": " fog", "4114": " ax", "4115": "stairs", "4116": "ilet", "4117": " hut", "4118": " happier", "4119": " taller", "4120": "ictionary", "4121": " oats", "4122": " fisherman", "4123": " object", "4124": " por", "4125": "vision", "4126": " valuable", "4127": " shampoo", "4128": " holes", "4129": " offered", "4130": " boots", "4131": " rhinoceros", "4132": " names", "4133": " toilet", "4134": " climbing", "4135": " blin", "4136": "vice", "4137": "Ow", "4138": " stretched", "4139": "iest", "4140": " zipper", "4141": " listening", "4142": " sym", "4143": " bathrobe", "4144": "alend", "4145": " jewelry", "4146": " Here", "4147": " jokes", "4148": " television", "4149": " prov", "4150": " calend", "4151": " stops", "4152": " axe", "4153": " jumps", "4154": " fuel", "4155": "cu", "4156": " sparkly", "4157": " perfume", "4158": " Susie", "4159": " bury", "4160": "bol", "4161": "Mummy", "4162": "lu", "4163": " pressed", "4164": " Kim", "4165": "reek", "4166": " rece", "4167": "fa", "4168": " Toby", "4169": " neat", "4170": " creek", "4171": " popped", "4172": " opera", "4173": " calendar", "4174": " snap", "4175": " gasped", "4176": " attach", "4177": " symbol", "4178": " tuna", "4179": " Mar", "4180": " papers", "4181": "Mr", "4182": " unpack", "4183": " resist", "4184": " dictionary", "4185": " subway", "4186": " letters", "4187": " freezer", "4188": " chose", "4189": " pinch", "4190": "zag", "4191": " spoke", "4192": " anyway", "4193": " super", "4194": " porch", "4195": " helper", "4196": "affe", "4197": " bikes", "4198": " lie", "4199": "arry", "4200": "iches", "4201": " tightly", "4202": " comfort", "4203": " shaking", "4204": " bookcase", "4205": " son", "4206": " razor", "4207": "aurant", "4208": " sandwiches", "4209": " Are", "4210": "igzag", "4211": " weigh", "4212": " against", "4213": " stickers", "4214": " restaurant", "4215": " newspaper", "4216": " blouse", "4217": " vehicle", "4218": " swinging", "4219": " ped", "4220": " disag", "4221": " nature", "4222": " squirrels", "4223": "ival", "4224": " belongs", "4225": " swamp", "4226": " butterflies", "4227": " gym", "4228": "del", "4229": " inclu", "4230": " growing", "4231": " buckle", "4232": "omed", "4233": " stirred", "4234": " mustache", "4235": " billboard", "4236": "xy", "4237": " beep", "4238": "te", "4239": " alarm", "4240": " lightning", "4241": " lip", "4242": " fest", "4243": " hung", "4244": "utor", "4245": " distance", "4246": "ogn", "4247": " cards", "4248": " obser", "4249": " agree", "4250": "Little", "4251": " ext", "4252": " tease", "4253": " recogn", "4254": " rubber", "4255": "ik", "4256": " hate", "4257": "fast", "4258": "ef", "4259": "Ouch", "4260": " doesn", "4261": " musician", "4262": " advice", "4263": " beef", "4264": " serve", "4265": "aspoon", "4266": " sweetie", "4267": " model", "4268": "lter", "4269": " crib", "4270": " blueberries", "4271": " sofa", "4272": " circles", "4273": " breakfast", "4274": " tutor", "4275": "asis", "4276": " bookshe", "4277": " giraffe", "4278": "stri", "4279": " festival", "4280": " separate", "4281": " shelter", "4282": " gas", "4283": " airport", "4284": " olive", "4285": " rail", "4286": " bookshelf", "4287": " frogs", "4288": " teaspoon", "4289": " reverse", "4290": " junk", "4291": " riding", "4292": " pleased", "4293": " drain", "4294": " Mrs", "4295": " wipe", "4296": " oasis", "4297": " soil", "4298": " ahead", "4299": " rescue", "4300": " leaving", "4301": "ummer", "4302": " painter", "4303": " squeeze", "4304": " chance", "4305": " poked", "4306": " knob", "4307": " Teddy", "4308": " peeked", "4309": " lumber", "4310": " trains", "4311": " extra", "4312": " slipp", "4313": " quiz", "4314": " refused", "4315": "res", "4316": "rmomet", "4317": " page", "4318": " rules", "4319": " happens", "4320": " sounded", "4321": " ins", "4322": " point", "4323": " winter", "4324": " dancer", "4325": " Grandpa", "4326": " birdc", "4327": " disappear", "4328": "rmometer", "4329": " Dolly", "4330": " weather", "4331": " waste", "4332": " lic", "4333": " birdcage", "4334": " theater", "4335": " reef", "4336": " carrying", "4337": "Daisy", "4338": " invite", "4339": "iform", "4340": " goal", "4341": " ostri", "4342": " uniform", "4343": " swung", "4344": " trade", "4345": " cliff", "4346": "ience", "4347": " lawn", "4348": "ola", "4349": " leaned", "4350": " Pandy", "4351": "angu", "4352": " accept", "4353": " admire", "4354": " fort", "4355": " accidentally", "4356": " pastel", "4357": "bbles", "4358": " stom", "4359": " langu", "4360": " twir", "4361": " suff", "4362": " panda", "4363": "riger", "4364": " bet", "4365": "rigerator", "4366": " peek", "4367": "render", "4368": " blinked", "4369": " starts", "4370": "na", "4371": " refrigerator", "4372": " anywhere", "4373": "!\".", "4374": " imagined", "4375": " dreaming", "4376": " remove", "4377": "night", "4378": " shower", "4379": " Lee", "4380": " Co", "4381": " classroom", "4382": " ceiling", "4383": " caring", "4384": "ium", "4385": " grand", "4386": " missing", "4387": "aked", "4388": " license", "4389": " stable", "4390": " thermometer", "4391": " monkeys", "4392": "astic", "4393": " warned", "4394": " summer", "4395": " Where", "4396": " above", "4397": " brick", "4398": "ected", "4399": " cudd", "4400": " problems", "4401": "amber", "4402": " chasing", "4403": " label", "4404": " apron", "4405": " sent", "4406": "urnit", "4407": "urniture", "4408": " lawy", "4409": " lid", "4410": "uggage", "4411": "med", "4412": " respectful", "4413": " furniture", "4414": " frowned", "4415": " zoomed", "4416": " pages", "4417": " prevent", "4418": " bent", "4419": " luggage", "4420": " mistakes", "4421": " sunset", "4422": " ostrich", "4423": "ison", "4424": " suggested", "4425": " windows", "4426": "ations", "4427": " jail", "4428": "low", "4429": " wine", "4430": " ribbon", "4431": " older", "4432": " shouts", "4433": " grape", "4434": " Cl", "4435": " wigg", "4436": "ucture", "4437": " structure", "4438": " spoil", "4439": "eor", "4440": " fixing", "4441": " chamber", "4442": " lions", "4443": " delay", "4444": " finds", "4445": " handed", "4446": " searching", "4447": " unite", "4448": "Did", "4449": " fought", "4450": " lawyer", "4451": " brightly", "4452": " pair", "4453": " meeting", "4454": " choice", "4455": " surprises", "4456": " Ellie", "4457": " art", "4458": " Un", "4459": "Ch", "4460": " favour", "4461": "eterin", "4462": "eterinarian", "4463": "adium", "4464": " stadium", "4465": " proudly", "4466": "iki", "4467": " veterinarian", "4468": "vet", "4469": "rod", "4470": " chairs", "4471": " slip", "4472": " Spe", "4473": " sadly", "4474": " Bow", "4475": " incre", "4476": " Carl", "4477": " puddles", "4478": " berry", "4479": " introd", "4480": " ranch", "4481": "veal", "4482": " Boun", "4483": " argue", "4484": " V", "4485": " admired", "4486": " cur", "4487": " favourite", "4488": "Your", "4489": " inf", "4490": " excitedly", "4491": " rac", "4492": " grabs", "4493": "mend", "4494": " steam", "4495": "thank", "4496": " human", "4497": "eorge", "4498": "sity", "4499": " Hel", "4500": " pushing", "4501": " saving", "4502": " Red", "4503": " reveal", "4504": "ommend", "4505": "alley", "4506": " yield", "4507": "olog", "4508": " mall", "4509": " reminded", "4510": " recommend", "4511": " leak", "4512": " surrender", "4513": " harb", "4514": " appl", "4515": "cuss", "4516": "aul", "4517": " weap", "4518": " regret", "4519": " putting", "4520": " valley", "4521": " mineral", "4522": " evening", "4523": "elcome", "4524": " matches", "4525": " forgave", "4526": " sneezed", "4527": " pup", "4528": " aw", "4529": " rushed", "4530": "ecause", "4531": " spade", "4532": " apolog", "4533": " plates", "4534": " discuss", "4535": " prepare", "4536": " harbor", "4537": " ignore", "4538": " Big", "4539": " country", "4540": " language", "4541": " Buzzy", "4542": " pulls", "4543": " plastic", "4544": " supply", "4545": " float", "4546": " sniffed", "4547": " Jazz", "4548": " replace", "4549": " meas", "4550": " shovel", "4551": " Bill", "4552": " raise", "4553": " Next", "4554": " fre", "4555": " cared", "4556": " socks", "4557": " strip", "4558": " doors", "4559": " mystery", "4560": " lives", "4561": " restore", "4562": " sticker", "4563": " sudden", "4564": "ari", "4565": " kinds", "4566": " slippery", "4567": "ero", "4568": " Ow", "4569": " player", "4570": " panic", "4571": "ricane", "4572": " hoping", "4573": "iday", "4574": " shone", "4575": "lex", "4576": "hero", "4577": " beg", "4578": " Mike", "4579": " Binky", "4580": " superhero", "4581": " delighted", "4582": " gro", "4583": "Yay", "4584": "aud", "4585": "chan", "4586": " chickens", "4587": " shoulder", "4588": " rained", "4589": " colourful", "4590": " breat", "4591": " Alice", "4592": " claw", "4593": " Bubbles", "4594": "Yuck", "4595": " softly", "4596": "rise", "4597": " port", "4598": "Grandma", "4599": " hol", "4600": "icer", "4601": " holiday", "4602": " barks", "4603": "ason", "4604": " throwing", "4605": " planes", "4606": "Mary", "4607": " bend", "4608": " Freddy", "4609": " shakes", "4610": " infant", "4611": " ended", "4612": " shivering", "4613": " kneel", "4614": " sunrise", "4615": " pushes", "4616": " Olive", "4617": " thanks", "4618": " fresh", "4619": " suffer", "4620": " points", "4621": "imed", "4622": "wards", "4623": " Pat", "4624": " tip", "4625": " Speedy", "4626": " freeze", "4627": " keeping", "4628": " Would", "4629": " giggle", "4630": " copper", "4631": " smells", "4632": " dear", "4633": " enter", "4634": " provide", "4635": "cast", "4636": "chanic", "4637": " dishes", "4638": " End", "4639": "cond", "4640": " unh", "4641": "Next", "4642": " applaud", "4643": " heads", "4644": " hurricane", "4645": " cherry", "4646": " thumb", "4647": " menu", "4648": " meowed", "4649": " mass", "4650": " second", "4651": " brighter", "4652": "ince", "4653": " sandcast", "4654": " mechanic", "4655": " wre", "4656": " sprayed", "4657": " letting", "4658": " event", "4659": " weapon", "4660": " laught", "4661": " x", "4662": " laughter", "4663": " clapping", "4664": " feelings", "4665": "Will", "4666": "icky", "4667": " splashing", "4668": "ement", "4669": " Or", "4670": "acked", "4671": " castles", "4672": " Fl", "4673": "cer", "4674": " score", "4675": "apping", "4676": " universe", "4677": " navy", "4678": " dem", "4679": " sticky", "4680": "ophie", "4681": " rooms", "4682": " row", "4683": " flies", "4684": "igi", "4685": " Dave", "4686": " unhappy", "4687": " greedy", "4688": " dare", "4689": " alive", "4690": " breaks", "4691": " ener", "4692": " courage", "4693": " invit", "4694": "Ready", "4695": " repeat", "4696": " demand", "4697": " trusted", "4698": "Lisa", "4699": " somewhere", "4700": "arlie", "4701": " prune", "4702": "bles", "4703": " wreck", "4704": " Y", "4705": " skill", "4706": " examine", "4707": " parts", "4708": "year", "4709": " eaten", "4710": "oe", "4711": "All", "4712": "erc", "4713": "enry", "4714": " mention", "4715": " raining", "4716": " Help", "4717": "Buddy", "4718": " throws", "4719": " jogged", "4720": "quest", "4721": " starting", "4722": " rush", "4723": " poison", "4724": " pirates", "4725": "heart", "4726": " vac", "4727": " content", "4728": "Emma", "4729": " Kiki", "4730": " sigh", "4731": " flapped", "4732": " drops", "4733": " chirp", "4734": " sport", "4735": "Qu", "4736": " sparkled", "4737": " Zoomy", "4738": " given", "4739": " streng", "4740": " steel", "4741": "Ann", "4742": " bumped", "4743": " yawned", "4744": " stud", "4745": " request", "4746": " scold", "4747": " myself", "4748": " strength", "4749": " shrugged", "4750": "Mark", "4751": " coats", "4752": " punish", "4753": " equ", "4754": " snugg", "4755": " university", "4756": " paid", "4757": " Johnny", "4758": " pigs", "4759": " scratch", "4760": " toe", "4761": " exerc", "4762": " tracks", "4763": " upstairs", "4764": " prayed", "4765": " crossed", "4766": " squeezed", "4767": " impressed", "4768": " flood", "4769": " bouncing", "4770": " Ru", "4771": "Alice", "4772": " rabbits", "4773": "ges", "4774": " badly", "4775": "..", "4776": " warn", "4777": " leather", "4778": " expect", "4779": " news", "4780": " tide", "4781": " Ted", "4782": " minute", "4783": " bears", "4784": " claws", "4785": " buzz", "4786": " sweetheart", "4787": " Sm", "4788": "yth", "4789": " nation", "4790": "Sh", "4791": "ythm", "4792": " vacation", "4793": " hist", "4794": " heat", "4795": " strawberries", "4796": " observe", "4797": " explored", "4798": " settle", "4799": " sandcastle", "4800": " yawn", "4801": " history", "4802": " Lilly", "4803": " Lola", "4804": "mare", "4805": " Mummy", "4806": " Sque", "4807": "ially", "4808": "inking", "4809": " believed", "4810": " horses", "4811": "Daddy", "4812": " Hoppy", "4813": " checked", "4814": " Mandy", "4815": " tour", "4816": " network", "4817": " cheek", "4818": " Under", "4819": " offer", "4820": " easily", "4821": " placed", "4822": "spec", "4823": " spots", "4824": " snowball", "4825": "ween", "4826": "men", "4827": " energy", "4828": " Bee", "4829": " imagination", "4830": " blueberry", "4831": "otten", "4832": " between", "4833": "specially", "4834": " Gigi", "4835": "izes", "4836": " daisy", "4837": " waving", "4838": "reeze", "4839": "reat", "4840": " vroom", "4841": " soak", "4842": " safari", "4843": " rhythm", "4844": " massage", "4845": " stomach", "4846": " baking", "4847": "quake", "4848": " nightmare", "4849": " insisted", "4850": " blowing", "4851": " entered", "4852": "Before", "4853": " stair", "4854": " palm", "4855": " beauty", "4856": " twisted", "4857": " bother", "4858": " writing", "4859": " scoop", "4860": " prunes", "4861": " brain", "4862": " ing", "4863": "ipment", "4864": " poppy", "4865": " hills", "4866": "noon", "4867": " afternoon", "4868": " equipment", "4869": " especially", "4870": "hest", "4871": " sir", "4872": " pad", "4873": " See", "4874": " ingred", "4875": " calls", "4876": " ingredient", "4877": " Fox", "4878": " earthquake", "4879": " ignored", "4880": " Snowy", "4881": " burned", "4882": " nobody", "4883": "mble", "4884": " sty", "4885": "apa", "4886": " sew", "4887": " tug", "4888": "isty", "4889": "xygen", "4890": " hearts", "4891": " lear", "4892": " learnt", "4893": " lemonade", "4894": " increase", "4895": "illie", "4896": "Jenny", "4897": " gaz", "4898": " backpack", "4899": " mailman", "4900": " whistled", "4901": " pedal", "4902": " Sk", "4903": "Fred", "4904": " shopkeeper", "4905": "ffic", "4906": " permit", "4907": " tremble", "4908": " yucky", "4909": "anges", "4910": " moves", "4911": " introduce", "4912": " lemons", "4913": " crash", "4914": " beans", "4915": " floated", "4916": "edn", "4917": "ednesday", "4918": "ittens", "4919": "Welcome", "4920": " planned", "4921": " strike", "4922": " traffic", "4923": " include", "4924": " slap", "4925": " racing", "4926": " Lucky", "4927": "resses", "4928": " wisdom", "4929": " pur", "4930": " wags", "4931": " Finny", "4932": "laimed", "4933": " George", "4934": " luck", "4935": " following", "4936": " \n", "4937": " price", "4938": "ecting", "4939": " mama", "4940": " pitch", "4941": " below", "4942": " Elly", "4943": " Have", "4944": "Le", "4945": " weight", "4946": " exclaimed", "4947": "house", "4948": " buried", "4949": " follows", "4950": " comf", "4951": " recognize", "4952": " ingredients", "4953": " furt", "4954": "tain", "4955": " candles", "4956": "Mimi", "4957": " marbles", "4958": "riage", "4959": "unday", "4960": "emember", "4961": "eration", "4962": " Alex", "4963": " apart", "4964": " Wednesday", "4965": " growled", "4966": "uct", "4967": " Su", "4968": "ores", "4969": " conf", "4970": " teaching", "4971": " hopes", "4972": " folded", "4973": " closely", "4974": " Finn", "4975": " Who", "4976": " heel", "4977": " Sunday", "4978": " encourage", "4979": " Paul", "4980": " Owl", "4981": " zigzag", "4982": " pulling", "4983": " digg", "4984": " bouncy", "4985": " further", "4986": " chewed", "4987": " digging", "4988": " winning", "4989": "Woof", "4990": "With", "4991": " dresses", "4992": " image", "4993": "rec", "4994": "cery", "4995": " shouting", "4996": " grocery", "4997": " twisty", "4998": " peanuts", "4999": " puzzles", "5000": "bbing", "5001": " Dog", "5002": "look", "5003": " scrat", "5004": " chores", "5005": " whisper", "5006": " Is", "5007": " spike", "5008": " Froggy", "5009": " cape", "5010": " snail", "5011": " acorns", "5012": " worms", "5013": "hood", "5014": " deeper", "5015": " urge", "5016": "ifi", "5017": " exper", "5018": " Whenever", "5019": " Tilly", "5020": " Squeaky", "5021": " Grace", "5022": " planted", "5023": " attention", "5024": "ecture", "5025": " exercise", "5026": " Danny", "5027": " cub", "5028": " operation", "5029": " underground", "5030": " hon", "5031": " agre", "5032": " quite", "5033": " creatures", "5034": " simp", "5035": "Everyone", "5036": " struggle", "5037": "oral", "5038": " Mittens", "5039": "ddy", "5040": " blood", "5041": " lecture", "5042": " washing", "5043": " hurting", "5044": " vanished", "5045": " gifts", "5046": " dressed", "5047": " invitation", "5048": " solved", "5049": " licks", "5050": " snuggled", "5051": " Sharing", "5052": "ippy", "5053": " ble", "5054": " marriage", "5055": " quietly", "5056": "gie", "5057": " warning", "5058": " jazz", "5059": " breathe", "5060": "reci", "5061": " elephants", "5062": " sizes", "5063": " dried", "5064": " fallen", "5065": " landscape", "5066": "ories", "5067": " sprink", "5068": " neighbour", "5069": " mice", "5070": "uesday", "5071": " appreci", "5072": " Sophie", "5073": " Joey", "5074": " \u2013", "5075": " eagerly", "5076": " sailing", "5077": " Coco", "5078": " paused", "5079": "ips", "5080": " counter", "5081": " Good", "5082": " Bounce", "5083": " Penny", "5084": " worth", "5085": "looking", "5086": " Rock", "5087": " oxygen", "5088": "Because", "5089": " release", "5090": " shined", "5091": "Not", "5092": "pted", "5093": " reaches", "5094": " balan", "5095": " Zara", "5096": "isses", "5097": " oh", "5098": " kisses", "5099": " style", "5100": " bricks", "5101": " plays", "5102": " glo", "5103": " Tuesday", "5104": " ideas", "5105": "sed", "5106": " inst", "5107": " wob", "5108": " fireworks", "5109": "Bella", "5110": "iggly", "5111": "ucked", "5112": " seeing", "5113": " flap", "5114": "ops", "5115": " accepted", "5116": "right", "5117": " Pip", "5118": "Today", "5119": " blink", "5120": "mm", "5121": " Ros", "5122": " tremb", "5123": "These", "5124": " muddy", "5125": " memory", "5126": " married", "5127": " tomatoes", "5128": " exit", "5129": " Annie", "5130": " wagging", "5131": " fash", "5132": "Remy", "5133": " Charlie", "5134": " wandered", "5135": "unately", "5136": "ipping", "5137": " gloves", "5138": " captain", "5139": " pillows", "5140": " receive", "5141": " resp", "5142": " Pinky", "5143": "raged", "5144": " during", "5145": " Everything", "5146": "etch", "5147": " web", "5148": " petals", "5149": " watered", "5150": " Eventually", "5151": " si", "5152": "ived", "5153": " manage", "5154": " pinched", "5155": " brings", "5156": " vanish", "5157": " cakes", "5158": " fashion", "5159": " Bluey", "5160": " printer", "5161": " destroyed", "5162": " treasures", "5163": "nce", "5164": " allow", "5165": "ups", "5166": " hadn", "5167": " worse", "5168": " Fifi", "5169": "Surpr", "5170": " vel", "5171": " hits", "5172": " bur", "5173": "xu", "5174": " velvet", "5175": " appear", "5176": " disagree", "5177": "do", "5178": " catching", "5179": " scattered", "5180": " Ro", "5181": " memories", "5182": " sorts", "5183": " Papa", "5184": " hers", "5185": " scolded", "5186": " signs", "5187": " pears", "5188": " oranges", "5189": " bones", "5190": " rang", "5191": " snapped", "5192": " sits", "5193": " seats", "5194": "uxu", "5195": " gazed", "5196": " raised", "5197": "Bl", "5198": " Maria", "5199": " zipped", "5200": " pies", "5201": " prints", "5202": " shot", "5203": " sliding", "5204": " God", "5205": " fro", "5206": " easier", "5207": "ssible", "5208": " skills", "5209": " climbs", "5210": " twirled", "5211": "ccer", "5212": " blankets", "5213": " forgotten", "5214": " baked", "5215": "ester", "5216": "Yum", "5217": "esterday", "5218": " difference", "5219": "orted", "5220": " luxu", "5221": " golden", "5222": "ising", "5223": " kitty", "5224": " Tw", "5225": " cutting", "5226": " season", "5227": "aggie", "5228": " nowhere", "5229": " crow", "5230": "ah", "5231": " soccer", "5232": " dared", "5233": " bites", "5234": " Henry", "5235": " Harry", "5236": "anny", "5237": " lung", "5238": " celebrated", "5239": "choo", "5240": "chie", "5241": " straight", "5242": " unlocked", "5243": "sters", "5244": " sorting", "5245": " collected", "5246": " bleed", "5247": "aped", "5248": "ding", "5249": " welcomed", "5250": " visited", "5251": " spoons", "5252": " ours", "5253": " stitch", "5254": " jogging", "5255": "Surprise", "5256": "medi", "5257": " emer", "5258": " Spark", "5259": "mediately", "5260": " isn", "5261": " tong", "5262": " trave", "5263": " winner", "5264": "umble", "5265": " since", "5266": " ruin", "5267": " prett", "5268": "Ok", "5269": "Moral", "5270": " Tony", "5271": " attached", "5272": " weeping", "5273": " marching", "5274": " luxury", "5275": " simple", "5276": " Each", "5277": " shouldn", "5278": " guessed", "5279": " zero", "5280": " created", "5281": " stuffed", "5282": " pets", "5283": "ction", "5284": " waist", "5285": " famil", "5286": " urged", "5287": " bowed", "5288": " selling", "5289": " floating", "5290": "rr", "5291": " Smith", "5292": " bye", "5293": " King", "5294": " vict", "5295": " kingdom", "5296": " olives", "5297": " kicking", "5298": " Wiggly", "5299": " punished", "5300": " Liz", "5301": " Baby", "5302": "sit", "5303": " toes", "5304": " grant", "5305": " muscles", "5306": " jewels", "5307": " Rosie", "5308": " beds", "5309": " melted", "5310": "Goodbye", "5311": " slice", "5312": " grin", "5313": " understanding", "5314": " collection", "5315": " tore", "5316": " measured", "5317": "aker", "5318": " cras", "5319": "omeday", "5320": "iers", "5321": " trapped", "5322": " lined", "5323": "'ve", "5324": " acted", "5325": "fortunately", "5326": " encouraged", "5327": "va", "5328": " Sandy", "5329": " received", "5330": " waffles", "5331": " Before", "5332": " Wally", "5333": " west", "5334": " meow", "5335": "ents", "5336": " patterns", "5337": "rin", "5338": "ino", "5339": " brus", "5340": "eath", "5341": " mouths", "5342": "kins", "5343": " bang", "5344": "ring", "5345": " Kate", "5346": "Meow", "5347": " peaches", "5348": " breeze", "5349": "aded", "5350": "une", "5351": " printed", "5352": " soldiers", "5353": " someday", "5354": " potatoes", "5355": " pupil", "5356": "umes", "5357": " Millie", "5358": " drinks", "5359": " shed", "5360": " experience", "5361": " Tuna", "5362": " presents", "5363": " firef", "5364": " Ruby", "5365": " surround", "5366": " none", "5367": "osed", "5368": " voices", "5369": "eep", "5370": " drinking", "5371": " Uncle", "5372": "ishing", "5373": " relaxed", "5374": " victory", "5375": "cus", "5376": " paints", "5377": " breaking", "5378": "eve", "5379": " hurried", "5380": "ission", "5381": " twink", "5382": " tongue", "5383": " costumes", "5384": " flat", "5385": " mentioned", "5386": " begged", "5387": " teasing", "5388": " whistling", "5389": " fetch", "5390": " permission", "5391": " sip", "5392": " disagreed", "5393": " pearl", "5394": "akes", "5395": " stro", "5396": "vest", "5397": " These", "5398": " esc", "5399": " appro", "5400": " skipping", "5401": " fishing", "5402": " May", "5403": "Leo", "5404": " highest", "5405": " pra", "5406": " watches", "5407": " sorted", "5408": " ringing", "5409": "ship", "5410": " tonight", "5411": " Bo", "5412": " opin", "5413": " lets", "5414": "icing", "5415": " Qu", "5416": " perfectly", "5417": " shadows", "5418": " immediately", "5419": " herbs", "5420": " warmth", "5421": " spit", "5422": " remained", "5423": "ther", "5424": " Its", "5425": "walk", "5426": "Bobby", "5427": "irring", "5428": "Jen", "5429": " sneak", "5430": " six", "5431": " lips", "5432": " kneeled", "5433": "Blue", "5434": " contest", "5435": " Che", "5436": "utter", "5437": " cartoons", "5438": " sidewalk", "5439": " colours", "5440": " stamps", "5441": " ago", "5442": "Ha", "5443": " Toto", "5444": " Boo", "5445": " Follow", "5446": " east", "5447": " headed", "5448": "oved", "5449": "\",", "5450": " strang", "5451": " ladyb", "5452": " fed", "5453": " supposed", "5454": " roots", "5455": " lick", "5456": " crunch", "5457": " mixing", "5458": " works", "5459": " decorations", "5460": " melting", "5461": " known", "5462": " emergen", "5463": "Mandy", "5464": " rested", "5465": " Ab", "5466": " lines", "5467": " Suzy", "5468": " lily", "5469": " Jul", "5470": " instr", "5471": " laid", "5472": " Gr", "5473": " succeeded", "5474": " cones", "5475": " wiggle", "5476": "ety", "5477": "sing", "5478": " shock", "5479": " setting", "5480": " Slow", "5481": " studied", "5482": " strangers", "5483": " Rocky", "5484": "Really", "5485": " twigs", "5486": " brid", "5487": " theirs", "5488": " Dr", "5489": " girls", "5490": "boo", "5491": "!\",", "5492": " screams", "5493": " lands", "5494": " ordered", "5495": " stirring", "5496": " moments", "5497": " fields", "5498": " alright", "5499": " stealing", "5500": "ded", "5501": "Andy", "5502": " rul", "5503": " bravely", "5504": "avid", "5505": " Both", "5506": " mister", "5507": "!'", "5508": " invest", "5509": " scratched", "5510": " playtime", "5511": " ripped", "5512": " investig", "5513": " tucked", "5514": " resting", "5515": " burning", "5516": "ishes", "5517": " Clara", "5518": " Chicky", "5519": " bridges", "5520": " officer", "5521": "please", "5522": "Sammy", "5523": "Bird", "5524": "abies", "5525": " settled", "5526": " matched", "5527": " achie", "5528": " tex", "5529": " texture", "5530": "Happy", "5531": " waits", "5532": " turning", "5533": " Sky", "5534": "Peter", "5535": "ored", "5536": " trembling", "5537": "isten", "5538": " nails", "5539": "atie", "5540": " muffins", "5541": " Someone", "5542": "ids", "5543": " escaped", "5544": " James", "5545": " piles", "5546": " investigate", "5547": "osity", "5548": " broom", "5549": " ladybug", "5550": " sore", "5551": " Pepper", "5552": " appreciate", "5553": " admir", "5554": " threat", "5555": " babies", "5556": " silence", "5557": " sisters", "5558": " emergency", "5559": " area", "5560": "ides", "5561": " dads", "5562": " answers", "5563": " pupp", "5564": " keys", "5565": " chewing", "5566": " slapped", "5567": " wiz", "5568": " importance", "5569": "Boo", "5570": " served", "5571": " Hop", "5572": " safety", "5573": "izing", "5574": "Bu", "5575": "Would", "5576": " sparkle", "5577": " touching", "5578": " Later", "5579": " soared", "5580": "igail", "5581": " sings", "5582": " hen", "5583": "allen", "5584": "Ella", "5585": "bers", "5586": "antly", "5587": "Momo", "5588": " Dino", "5589": " keeps", "5590": " amazement", "5591": " challen", "5592": " twin", "5593": " hesit", "5594": " revealed", "5595": "anna", "5596": "achel", "5597": " item", "5598": " dire", "5599": " soaked", "5600": "zing", "5601": " writ", "5602": " foods", "5603": " rides", "5604": " dinosaurs", "5605": " recorded", "5606": " tickle", "5607": " inch", "5608": " Zigzag", "5609": " Me", "5610": " wizard", "5611": " vet", "5612": " trips", "5613": " glowed", "5614": " An", "5615": " Frog", "5616": "Mmm", "5617": " hi", "5618": " beamed", "5619": " quack", "5620": " curled", "5621": " hated", "5622": " wink", "5623": " shopping", "5624": " eats", "5625": "Eventually", "5626": " Bug", "5627": " praised", "5628": " wooden", "5629": " bringing", "5630": " mittens", "5631": " studying", "5632": " guy", "5633": " brushes", "5634": " spaceship", "5635": " gust", "5636": " crawling", "5637": " Something", "5638": "Cat", "5639": " ruler", "5640": " flav", "5641": " downstairs", "5642": " shooting", "5643": " tastes", "5644": " napping", "5645": " sprinkles", "5646": " marks", "5647": " cuddled", "5648": " dot", "5649": "hello", "5650": "plash", "5651": " fut", "5652": "ales", "5653": "aved", "5654": " future", "5655": " monsters", "5656": " collecting", "5657": " measuring", "5658": " Happy", "5659": "'.", "5660": " families", "5661": " Out", "5662": " First", "5663": " Mo", "5664": " thrill", "5665": " oat", "5666": "irts", "5667": " result", "5668": "Jake", "5669": " approached", "5670": " Rabbit", "5671": " crunchy", "5672": "act", "5673": "Un", "5674": " remem", "5675": " bleeding", "5676": " remembers", "5677": " nicer", "5678": " beat", "5679": " sneaky", "5680": " disturbed", "5681": " leader", "5682": " scaring", "5683": "Or", "5684": "hind", "5685": " peel", "5686": " Hope", "5687": " firemen", "5688": " neighborhood", "5689": " Star", "5690": " grey", "5691": " Not", "5692": " motion", "5693": " noon", "5694": " possible", "5695": "Emily", "5696": "Somet", "5697": " apologized", "5698": " weighed", "5699": "ues", "5700": " Did", "5701": " tickets", "5702": "Cl", "5703": " naps", "5704": " loose", "5705": " pride", "5706": " youth", "5707": " swims", "5708": "ped", "5709": " strings", "5710": " recognized", "5711": " siren", "5712": " poking", "5713": "fied", "5714": " Ho", "5715": "cious", "5716": "ha", "5717": "elvet", "5718": " tricked", "5719": " wonders", "5720": " gained", "5721": " wanting", "5722": " crashed", "5723": " obe", "5724": " seesaw", "5725": " worker", "5726": "unnies", "5727": "ls", "5728": "oming", "5729": " draws", "5730": " scooped", "5731": ".'", "5732": " zooming", "5733": " opinion", "5734": " yelling", "5735": " prepared", "5736": " grinned", "5737": " Slowly", "5738": " awe", "5739": " poems", "5740": " doggy", "5741": " acting", "5742": " Beep", "5743": " happiest", "5744": " chef", "5745": " sneaked", "5746": " respons", "5747": " eff", "5748": " Always", "5749": " Lizzy", "5750": " owned", "5751": " bunnies", "5752": " anytime", "5753": " struck", "5754": " pedals", "5755": "oys", "5756": " knelt", "5757": "ena", "5758": "Ollie", "5759": " secrets", "5760": " pause", "5761": " decorated", "5762": " horns", "5763": " agreement", "5764": " Squ", "5765": "ided", "5766": " frost", "5767": " tallest", "5768": " obey", "5769": "Remember", "5770": "riends", "5771": "ogo", "5772": " Stop", "5773": "Have", "5774": " decides", "5775": " Once", "5776": " behaved", "5777": " tugged", "5778": " sides", "5779": " woof", "5780": " slim", "5781": "zen", "5782": " goodnight", "5783": " keeper", "5784": " sparkling", "5785": " chirped", "5786": " precious", "5787": "mother", "5788": "lier", "5789": "ien", "5790": "Tr", "5791": " repeated", "5792": " claps", "5793": "indy", "5794": "affes", "5795": " snowballs", "5796": " contain", "5797": "ud", "5798": "rs", "5799": " Ray", "5800": " ourselves", "5801": "allow", "5802": " giraffes", "5803": " balancing", "5804": " kindly", "5805": " spending", "5806": " writes", "5807": "ays", "5808": "ppers", "5809": " Like", "5810": "omas", "5811": " prop", "5812": " hissed", "5813": "First", "5814": " frozen", "5815": " frosting", "5816": " effort", "5817": " buzzing", "5818": " struggled", "5819": "oh", "5820": " Steve", "5821": " admiring", "5822": " rele", "5823": "iggy", "5824": " sweeties", "5825": " Velvet", "5826": " slimy", "5827": " brushed", "5828": " bloomed", "5829": "Susie", "5830": " Am", "5831": " polished", "5832": " Zoe", "5833": "arth", "5834": "anted", "5835": " comfy", "5836": " boo", "5837": " staying", "5838": " rubbing", "5839": "Ducky", "5840": " rocking", "5841": " pockets", "5842": " thrilled", "5843": " beside", "5844": " comple", "5845": " Aunt", "5846": " Maggie", "5847": "Ah", "5848": " eight", "5849": "urry", "5850": "isdom", "5851": " machines", "5852": " earlier", "5853": " yesterday", "5854": " seems", "5855": " rust", "5856": " Keep", "5857": "Sp", "5858": " traveled", "5859": " folding", "5860": " boom", "5861": " cracked", "5862": "ities", "5863": " hugging", "5864": " radishes", "5865": " Stitch", "5866": " opening", "5867": " loving", "5868": " circus", "5869": " surrounded", "5870": " curiosity", "5871": " Rachel", "5872": " spraying", "5873": " demanded", "5874": " paintings", "5875": "amie", "5876": " Green", "5877": " removed", "5878": " gaze", "5879": " honk", "5880": " pebbles", "5881": " zookeeper", "5882": " hardly", "5883": " catches", "5884": "edding", "5885": " sting", "5886": " stripes", "5887": " powers", "5888": " loaded", "5889": " Pippa", "5890": "Sometimes", "5891": " splashes", "5892": " pots", "5893": " petted", "5894": " matching", "5895": " David", "5896": "Thanks", "5897": " toss", "5898": " stare", "5899": " belly", "5900": "Yummy", "5901": "ibb", "5902": " whatever", "5903": " apologize", "5904": " rocked", "5905": " comforted", "5906": " Bree", "5907": " decision", "5908": " ribbons", "5909": " Joy", "5910": " Birdie", "5911": "ern", "5912": " struggling", "5913": " expected", "5914": " deser", "5915": " steep", "5916": "wh", "5917": " protected", "5918": " neighbors", "5919": " smiley", "5920": " chases", "5921": "During", "5922": " granted", "5923": " crumb", "5924": " Mat", "5925": " purred", "5926": " diving", "5927": " sadness", "5928": "Whiskers", "5929": " organizing", "5930": "lowers", "5931": " eagle", "5932": " heroes", "5933": " dipped", "5934": " sunlight", "5935": " lied", "5936": " pastels", "5937": " Frank", "5938": "Ex", "5939": " safer", "5940": " roads", "5941": " scru", "5942": " argued", "5943": " Milly", "5944": " goals", "5945": " Water", "5946": " discovery", "5947": " Abigail", "5948": " villag", "5949": " peered", "5950": "Ro", "5951": " Bouncy", "5952": "use", "5953": "ana", "5954": "loe", "5955": " tim", "5956": " dragons", "5957": " buildings", "5958": " buckets", "5959": " parties", "5960": " beard", "5961": " wedding", "5962": "Rex", "5963": " flutter", "5964": " planets", "5965": " ann", "5966": " Robby", "5967": " polishing", "5968": " fasc", "5969": "ira", "5970": " released", "5971": " Chr", "5972": " crabs", "5973": " Gogo", "5974": " tails", "5975": " Watch", "5976": " sausages", "5977": " Ju", "5978": " argu", "5979": " contro", "5980": " bottles", "5981": " wiggled", "5982": " teased", "5983": "uke", "5984": " arguing", "5985": " sled", "5986": " dragged", "5987": " padd", "5988": " Car", "5989": " roaring", "5990": " clearing", "5991": " shirts", "5992": " movies", "5993": " gathering", "5994": " airpl", "5995": " wid", "5996": "joyed", "5997": " teaches", "5998": " spiders", "5999": " limes", "6000": " Remember", "6001": " Dare", "6002": " overjoyed", "6003": " actually", "6004": " sighs", "6005": " continue", "6006": " cuddle", "6007": " soaring", "6008": " smallest", "6009": " Jess", "6010": " drives", "6011": " sparkles", "6012": " rip", "6013": " situ", "6014": " cubes", "6015": " refres", "6016": " talent", "6017": " challenge", "6018": " Olly", "6019": " grandmother", "6020": " Splash", "6021": " pouring", "6022": "umm", "6023": " pretends", "6024": " fascin", "6025": " cuts", "6026": " quarreling", "6027": " peppers", "6028": " bank", "6029": " shivered", "6030": " mane", "6031": " dusty", "6032": "ley", "6033": " wondering", "6034": " villagers", "6035": " stretching", "6036": "njoy", "6037": "ib", "6038": " weeks", "6039": " wherever", "6040": " darker", "6041": "jam", "6042": "Tiny", "6043": "sses", "6044": " X", "6045": " rings", "6046": " onwards", "6047": " Katie", "6048": " united", "6049": "Achoo", "6050": " bead", "6051": " Everyday", "6052": " Being", "6053": " prettiest", "6054": "Johnny", "6055": " caut", "6056": " realize", "6057": " company", "6058": " penguins", "6059": "annah", "6060": "Luna", "6061": "Fr", "6062": " Spring", "6063": " bedtime", "6064": " completed", "6065": " Wisdom", "6066": " Leave", "6067": "\u201d.", "6068": " knights", "6069": " flags", "6070": " Je", "6071": " Because", "6072": " playroom", "6073": " Prin", "6074": " actions", "6075": " Zero", "6076": " learns", "6077": " gotten", "6078": " patience", "6079": "inda", "6080": "dam", "6081": " shrug", "6082": " kites", "6083": " responsible", "6084": " fears", "6085": " destination", "6086": " wires", "6087": " reply", "6088": " wrist", "6089": " dam", "6090": "aws", "6091": " packing", "6092": " mountains", "6093": " fault", "6094": " applauded", "6095": " scrubbed", "6096": " ma", "6097": " crept", "6098": " Ava", "6099": "Uh", "6100": " Earth", "6101": " satis", "6102": " third", "6103": " phot", "6104": " pencils", "6105": " wins", "6106": " sticking", "6107": " baker", "6108": " visiting", "6109": " wound", "6110": " uses", "6111": " peas", "6112": " reminder", "6113": " control", "6114": "ashed", "6115": "Grandpa", "6116": " joking", "6117": " awake", "6118": " instruct", "6119": " staring", "6120": " healed", "6121": " Put", "6122": " hitting", "6123": " Fish", "6124": " screaming", "6125": " begin", "6126": "Rob", "6127": "uckily", "6128": " Friends", "6129": " Moo", "6130": "icorn", "6131": " helmets", "6132": "enty", "6133": " unicorn", "6134": "ler", "6135": "seek", "6136": " towels", "6137": "Silly", "6138": " Lou", "6139": " chips", "6140": "ica", "6141": " creation", "6142": " wasted", "6143": "bie", "6144": "Mar", "6145": " Behind", "6146": "laire", "6147": " masks", "6148": " items", "6149": " forgi", "6150": " firefight", "6151": " outdo", "6152": " lollipops", "6153": "Watch", "6154": " heav", "6155": " guns", "6156": " died", "6157": " Hippy", "6158": " seas", "6159": " glitter", "6160": "uddles", "6161": " arrive", "6162": " weren", "6163": " stole", "6164": " scales", "6165": " perched", "6166": " accom", "6167": " logs", "6168": " achieve", "6169": "die", "6170": " practicing", "6171": "ining", "6172": " whose", "6173": "Stay", "6174": " pumpkins", "6175": " instructions", "6176": " swoop", "6177": " batteries", "6178": " candies", "6179": " agrees", "6180": " project", "6181": " snakes", "6182": " chirping", "6183": "Benny", "6184": " shelves", "6185": " protecting", "6186": " parked", "6187": " exact", "6188": " Cra", "6189": " patiently", "6190": " activ", "6191": " videos", "6192": " shoulders", "6193": " blows", "6194": "hee", "6195": "Fo", "6196": " promises", "6197": "go", "6198": " dent", "6199": "usan", "6200": "uest", "6201": "ners", "6202": "jamas", "6203": " examined", "6204": " airplane", "6205": "Doggy", "6206": " roses", "6207": " accompl", "6208": " tasks", "6209": "Dave", "6210": " Hoot", "6211": "Poppy", "6212": " Bop", "6213": "Bunny", "6214": " beads", "6215": " bowls", "6216": " crumbs", "6217": "zes", "6218": " listens", "6219": " Love", "6220": " Catty", "6221": " Brownie", "6222": "Pete", "6223": " Ol", "6224": " dolphins", "6225": " cough", "6226": " bunch", "6227": " guest", "6228": "cakes", "6229": " requested", "6230": " remote", "6231": " improved", "6232": "anta", "6233": " reaching", "6234": " brand", "6235": " Jan", "6236": "ayla", "6237": " alien", "6238": " Bye", "6239": "irm", "6240": " copy", "6241": " Sun", "6242": " cheering", "6243": " photos", "6244": " Julie", "6245": " Chew", "6246": "Bad", "6247": " Blink", "6248": "Time", "6249": " cans", "6250": " Cuddles", "6251": " timer", "6252": " By", "6253": " replaced", "6254": "athy", "6255": " workers", "6256": " stern", "6257": " Enjoy", "6258": "aster", "6259": " neither", "6260": "Mike", "6261": " passing", "6262": " misses", "6263": " curtains", "6264": " confl", "6265": "Chirpy", "6266": " rainbows", "6267": " rubs", "6268": "George", "6269": "uctantly", "6270": " rolls", "6271": " patted", "6272": "ilo", "6273": " pajamas", "6274": " outdoors", "6275": "esome", "6276": "dies", "6277": " complaining", "6278": " Squirrel", "6279": "Lola", "6280": "Run", "6281": " puppet", "6282": " Princess", "6283": " closes", "6284": " beneath", "6285": " lap", "6286": " drums", "6287": " tune", "6288": " Beth", "6289": " Mouse", "6290": " filling", "6291": "Miss", "6292": "angled", "6293": " refuse", "6294": " Sorry", "6295": " sweat", "6296": " faced", "6297": "...", "6298": " seven", "6299": " balanced", "6300": " rescued", "6301": "neath", "6302": "bl", "6303": " quacked", "6304": " Abby", "6305": "Paul", "6306": "istle", "6307": " awesome", "6308": " 1", "6309": " mission", "6310": " However", "6311": " guys", "6312": " conflict", "6313": " cautious", "6314": " vent", "6315": " observed", "6316": " cause", "6317": " introduc", "6318": " Thomas", "6319": " pastries", "6320": "nie", "6321": "  ", "6322": " Our", "6323": " exactly", "6324": " doctors", "6325": " rule", "6326": " becoming", "6327": " policeman", "6328": " mes", "6329": "uly", "6330": " rockets", "6331": "you", "6332": " Yes", "6333": " Dot", "6334": " fairies", "6335": "lay", "6336": " pout", "6337": "An", "6338": " insist", "6339": " blooming", "6340": " tractor", "6341": " farther", "6342": " Sad", "6343": "avi", "6344": "Oops", "6345": "Great", "6346": " remembering", "6347": " included", "6348": " curly", "6349": "Zoom", "6350": "Fine", "6351": " teamwork", "6352": "zie", "6353": " fascinated", "6354": " wobbled", "6355": " slam", "6356": " truly", "6357": " helpers", "6358": " sights", "6359": " paddle", "6360": " stumble", "6361": " firm", "6362": "Henry", "6363": " Jilly", "6364": "acob", "6365": " caused", "6366": " prayer", "6367": " spong", "6368": " recording", "6369": "kelly", "6370": "ais", "6371": " traded", "6372": " starfish", "6373": " supplies", "6374": " thro", "6375": " pointy", "6376": " situation", "6377": " inviting", "6378": "eah", "6379": "gers", "6380": " neighbourhood", "6381": " everyday", "6382": " ornaments", "6383": " Ally", "6384": "inkle", "6385": " valued", "6386": " adding", "6387": "Some", "6388": " reluctantly", "6389": " dots", "6390": " stays", "6391": " tables", "6392": " prettier", "6393": " bare", "6394": " desert", "6395": " snowmen", "6396": " steady", "6397": " minerals", "6398": "araway", "6399": " thorn", "6400": "ody", "6401": " ast", "6402": " glasses", "6403": " faraway", "6404": " Get", "6405": " Foxy", "6406": " swooped", "6407": " Welcome", "6408": " Two", "6409": " Sure", "6410": " unf", "6411": " forks", "6412": " usually", "6413": " usual", "6414": "Polly", "6415": " dar", "6416": " Jamie", "6417": " winked", "6418": " sneezing", "6419": " solut", "6420": " loading", "6421": " sponge", "6422": " Quick", "6423": " insects", "6424": " pans", "6425": "Dog", "6426": " sobbed", "6427": " Santa", "6428": "James", "6429": " growling", "6430": "sm", "6431": "arter", "6432": " throat", "6433": " Chloe", "6434": " noses", "6435": " Josh", "6436": " Dizzy", "6437": " scarves", "6438": " confident", "6439": " yourselves", "6440": " Want", "6441": "agull", "6442": " homework", "6443": " superheroes", "6444": " Stay", "6445": "Joey", "6446": " smarter", "6447": " windy", "6448": " librarian", "6449": "Tina", "6450": " Kids", "6451": " gems", "6452": "Days", "6453": "ora", "6454": " underneath", "6455": " kicks", "6456": " knowled", "6457": " itchy", "6458": " knowledge", "6459": " jackets", "6460": " Skelly", "6461": " For", "6462": " surface", "6463": " untie", "6464": " comm", "6465": " Duck", "6466": " princesses", "6467": "...\"", "6468": "Those", "6469": "ido", "6470": "eed", "6471": "Hold", "6472": "Yeah", "6473": "coon", "6474": " squares", "6475": " Henny", "6476": " warnings", "6477": " giggling", "6478": "iar", "6479": " reads", "6480": "vin", "6481": "Our", "6482": " choo", "6483": "son", "6484": " younger", "6485": " clowns", "6486": " Mix", "6487": "Toby", "6488": " ropes", "6489": " biting", "6490": " crowd", "6491": " Unfortunately", "6492": "pite", "6493": "Danny", "6494": "True", "6495": " seagull", "6496": " paddled", "6497": " wears", "6498": " delivered", "6499": " Mon", "6500": " twirl", "6501": " onions", "6502": " buzzed", "6503": " complained", "6504": " bumpy", "6505": " stem", "6506": "Ew", "6507": " piggy", "6508": "Mrs", "6509": " Anne", "6510": " direction", "6511": "ouch", "6512": " dived", "6513": "Roar", "6514": " tangled", "6515": " startled", "6516": "ults", "6517": " leaning", "6518": "bbie", "6519": " Ant", "6520": " Jones", "6521": " badge", "6522": " Po", "6523": "Grace", "6524": " unp", "6525": " deal", "6526": "though", "6527": "Annie", "6528": " vowed", "6529": " napkins", "6530": "anes", "6531": " tickled", "6532": " risk", "6533": " covers", "6534": " pec", "6535": "Shh", "6536": " yells", "6537": " satisfied", "6538": "int", "6539": " knocks", "6540": " refreshed", "6541": "tuce", "6542": " Sc", "6543": "cuse", "6544": " cous", "6545": " arrows", "6546": "Maggie", "6547": " Whistle", "6548": "Pe", "6549": " wipes", "6550": " speaking", "6551": " lettuce", "6552": " guessing", "6553": "Unfortunately", "6554": " Quack", "6555": " ripe", "6556": " Susan", "6557": " hides", "6558": " choices", "6559": " Dodo", "6560": " Rover", "6561": "Buzz", "6562": " signed", "6563": " slower", "6564": " seeker", "6565": " introduced", "6566": " singer", "6567": " creating", "6568": " Matt", "6569": " froze", "6570": " cent", "6571": "uggles", "6572": " joked", "6573": " squeal", "6574": " toaster", "6575": " explorers", "6576": "fit", "6577": " avo", "6578": "anging", "6579": "Sophie", "6580": " praying", "6581": " written", "6582": " discovering", "6583": " provided", "6584": " Dara", "6585": " refle", "6586": " Lion", "6587": "Excuse", "6588": " mushrooms", "6589": " Jeff", "6590": " Paws", "6591": " paying", "6592": " knees", "6593": "ences", "6594": " hider", "6595": " wandering", "6596": " Ash", "6597": " images", "6598": "Charlie", "6599": " stung", "6600": " Wink", "6601": " magnets", "6602": " barely", "6603": " behaving", "6604": " tipto", "6605": "?\",", "6606": " marked", "6607": "brush", "6608": "rrr", "6609": " restored", "6610": " Dee", "6611": " leading", "6612": "lled", "6613": " chuck", "6614": "ados", "6615": " nine", "6616": " greet", "6617": "Teddy", "6618": " gears", "6619": " bravery", "6620": " Snuggles", "6621": "ky", "6622": " competition", "6623": "eal", "6624": " outfit", "6625": "oline", "6626": " wishing", "6627": " properly", "6628": " ventured", "6629": "tle", "6630": "aa", "6631": " muscle", "6632": " dances", "6633": " chat", "6634": " salty", "6635": " pens", "6636": "amb", "6637": " Betsy", "6638": " ranger", "6639": " Ziggy", "6640": " deserve", "6641": " however", "6642": "sequ", "6643": " matters", "6644": " darkness", "6645": " burst", "6646": " Fu", "6647": " rainy", "6648": " cobwebs", "6649": " ruining", "6650": " chefs", "6651": " consequ", "6652": " blocking", "6653": " bak", "6654": "usted", "6655": "itely", "6656": "sty", "6657": " scur", "6658": " vines", "6659": " fab", "6660": "abel", "6661": " fabric", "6662": " entire", "6663": " basement", "6664": " performed", "6665": " least", "6666": " Buggy", "6667": "Sn", "6668": " scratches", "6669": " heavier", "6670": " Claire", "6671": " mints", "6672": " twirling", "6673": " avocados", "6674": "However", "6675": " Linda", "6676": "rink", "6677": "fl", "6678": " scurried", "6679": " losing", "6680": " sunflowers", "6681": " Jenna", "6682": " rainco", "6683": " swords", "6684": "Tweet", "6685": " click", "6686": "agic", "6687": " Laser", "6688": " silent", "6689": " jobs", "6690": " necklaces", "6691": " flames", "6692": " Luke", "6693": " relief", "6694": " Grumpy", "6695": " snat", "6696": " sewed", "6697": " rotting", "6698": "len", "6699": "Listen", "6700": "Follow", "6701": " tricky", "6702": "Jerry", "6703": " lighter", "6704": "ophia", "6705": " bows", "6706": " Skip", "6707": " exha", "6708": " solution", "6709": " consequences", "6710": "Alex", "6711": " Lena", "6712": " tires", "6713": " stain", "6714": "Beep", "6715": " unpacked", "6716": "Ab", "6717": " partic", "6718": "rance", "6719": " races", "6720": " pins", "6721": " bumps", "6722": " wraps", "6723": "aisies", "6724": " wow", "6725": " decorating", "6726": " backed", "6727": "cher", "6728": " dentist", "6729": " purr", "6730": " needles", "6731": " cautiously", "6732": " lifting", "6733": "izzie", "6734": " Pr", "6735": " accomplish", "6736": " triangles", "6737": " daisies", "6738": "ept", "6739": " hesitated", "6740": " annoy", "6741": " Those", "6742": " growls", "6743": " crackers", "6744": "oke", "6745": " stomped", "6746": " grabbing", "6747": " cott", "6748": " figured", "6749": " bodies", "6750": " mater", "6751": " buying", "6752": " Tree", "6753": " material", "6754": " Rolly", "6755": " Fido", "6756": " Adam", "6757": " swans", "6758": " ties", "6759": " gri", "6760": "vers", "6761": " grows", "6762": " \n ", "6763": " sweets", "6764": " Goodbye", "6765": " owners", "6766": " flavor", "6767": " cheeks", "6768": " Cathy", "6769": "Big", "6770": " suffering", "6771": " Jessie", "6772": " El", "6773": "vroom", "6774": " fact", "6775": " groups", "6776": "bly", "6777": " forehead", "6778": " lungs", "6779": "Harry", "6780": " repa", "6781": " interested", "6782": " bakery", "6783": " Milo", "6784": " freed", "6785": "Lilly", "6786": "itches", "6787": " Nothing", "6788": " chuckled", "6789": "For", "6790": " swept", "6791": " conn", "6792": "?'", "6793": " thud", "6794": " exhausted", "6795": "Tw", "6796": " twinkling", "6797": " tapped", "6798": "Ru", "6799": " nect", "6800": "rosty", "6801": " nectar", "6802": "elle", "6803": " feast", "6804": " darling", "6805": "indr", "6806": " Mad", "6807": " worries", "6808": " uns", "6809": " tunnels", "6810": " fuzzy", "6811": " repaired", "6812": " reason", "6813": " Trust", "6814": " Copper", "6815": " Ball", "6816": " activities", "6817": "lets", "6818": " pecked", "6819": " Hannah", "6820": " entrance", "6821": " Try", "6822": " raindr", "6823": " meals", "6824": " Listen", "6825": " particular", "6826": " completely", "6827": " mailed", "6828": "ctions", "6829": " nests", "6830": " waiter", "6831": " cuddly", "6832": " sense", "6833": " Nana", "6834": " colored", "6835": "arky", "6836": " leap", "6837": "step", "6838": "band", "6839": " plenty", "6840": " peeking", "6841": " slammed", "6842": " Cara", "6843": "no", "6844": " players", "6845": " month", "6846": " budge", "6847": " Birthday", "6848": " Q", "6849": " scra", "6850": " forgets", "6851": " den", "6852": " handful", "6853": " Oliver", "6854": " mer", "6855": "ossible", "6856": " genie", "6857": " Christ", "6858": " stool", "6859": "iggie", "6860": " talks", "6861": " Pup", "6862": " Suzie", "6863": " passports", "6864": " feeding", "6865": " films", "6866": " baths", "6867": " impossible", "6868": " determination", "6869": "May", "6870": " printing", "6871": "boat", "6872": " designed", "6873": " buses", "6874": " opp", "6875": "ueen", "6876": "lephant", "6877": " suitcase", "6878": " bars", "6879": " counts", "6880": " stolen", "6881": " spreading", "6882": " spikes", "6883": " Snap", "6884": " wiping", "6885": " steer", "6886": " lamb", "6887": " Rain", "6888": " honked", "6889": "etty", "6890": "nies", "6891": "Whee", "6892": " cowb", "6893": " separated", "6894": "blings", "6895": " siblings", "6896": " hops", "6897": " chop", "6898": " sewing", "6899": " fires", "6900": " Twinkle", "6901": " fever", "6902": " twinkle", "6903": " ty", "6904": " camping", "6905": " Mira", "6906": " lower", "6907": " changing", "6908": "yes", "6909": "retch", "6910": " behavi", "6911": " Bloom", "6912": "mas", "6913": " liqu", "6914": " celebration", "6915": "but", "6916": " squealed", "6917": " dollhouse", "6918": "Sunny", "6919": " backward", "6920": " age", "6921": " snatched", "6922": " cash", "6923": "ho", "6924": " twice", "6925": "lee", "6926": " sway", "6927": "itched", "6928": " celebrating", "6929": " Peanut", "6930": " shrinking", "6931": " ache", "6932": "weed", "6933": " kings", "6934": "rious", "6935": " shops", "6936": " kittens", "6937": "cope", "6938": "Rose", "6939": " Jessica", "6940": " Jacob", "6941": " Gina", "6942": "aura", "6943": " hus", "6944": " touches", "6945": "airy", "6946": " pancakes", "6947": " avoid", "6948": " spat", "6949": " Frosty", "6950": "rig", "6951": "hog", "6952": " Nina", "6953": " paths", "6954": "ives", "6955": "cky", "6956": " Hold", "6957": " rotten", "6958": " calmed", "6959": "Sandy", "6960": " seaweed", "6961": " dropping", "6962": " Jon", "6963": " Mel", "6964": "iles", "6965": "Pipp", "6966": " twisting", "6967": " stroked", "6968": " untied", "6969": "llen", "6970": " playhouse", "6971": "ne", "6972": "Millie", "6973": " students", "6974": " puppies", "6975": "cl", "6976": " Sof", "6977": "hi", "6978": " screws", "6979": " astron", "6980": " Re", "6981": " somebody", "6982": "igning", "6983": " liquid", "6984": "ammy", "6985": " wakes", "6986": " squish", "6987": " Woof", "6988": " bracelets", "6989": " astronaut", "6990": "immer", "6991": "aren", "6992": " thrown", "6993": " loops", "6994": " Other", "6995": "Luckily", "6996": " wrapping", "6997": " plain", "6998": " tramp", "6999": " planning", "7000": " skunk", "7001": " aimed", "7002": " pennies", "7003": " shoo", "7004": " lifts", "7005": " dancers", "7006": " sparks", "7007": " firefly", "7008": "pen", "7009": "Dan", "7010": " poster", "7011": "yan", "7012": "endy", "7013": " cust", "7014": " Christmas", "7015": " rewarded", "7016": " objects", "7017": " directions", "7018": "using", "7019": "ingo", "7020": " reflection", "7021": " husband", "7022": "Take", "7023": "river", "7024": " clues", "7025": "uppy", "7026": " leads", "7027": " increased", "7028": " blocked", "7029": " rising", "7030": " dod", "7031": " cousin", "7032": " Yesterday", "7033": " Without", "7034": " forgetting", "7035": "rigued", "7036": " custom", "7037": "Kate", "7038": "ude", "7039": " trampoline", "7040": " beginning", "7041": " storekeeper", "7042": " pouted", "7043": " zebras", "7044": " hedgehog", "7045": " aff", "7046": " borrowed", "7047": " Rollie", "7048": " \u2018", "7049": " snowfl", "7050": " countryside", "7051": "Jump", "7052": " mesmer", "7053": " Jay", "7054": " vehicles", "7055": " instrum", "7056": " Mic", "7057": " Kayla", "7058": " Up", "7059": " frowning", "7060": "ivity", "7061": "Pat", "7062": "Under", "7063": " marker", "7064": "yond", "7065": " presses", "7066": " beyond", "7067": " Queen", "7068": " damage", "7069": " Only", "7070": "iece", "7071": "ivery", "7072": " fart", "7073": " Tara", "7074": " Biggie", "7075": "jo", "7076": " health", "7077": " whispers", "7078": " swimsuit", "7079": " slips", "7080": " nibb", "7081": " Julia", "7082": "armer", "7083": " warmer", "7084": " flapping", "7085": " tiptoed", "7086": " regretted", "7087": "itted", "7088": "Zip", "7089": " laying", "7090": " Robo", "7091": "ades", "7092": " yelp", "7093": " Fire", "7094": " rains", "7095": " glued", "7096": " everybody", "7097": " creations", "7098": " hearing", "7099": " swir", "7100": " colder", "7101": "iversity", "7102": "ael", "7103": " shaped", "7104": " Elephant", "7105": " streets", "7106": " fins", "7107": " rusty", "7108": " cushions", "7109": "Out", "7110": " san", "7111": " farthest", "7112": " creativity", "7113": " Mikey", "7114": "ans", "7115": " sale", "7116": "Always", "7117": "Co", "7118": " strongest", "7119": "ibbit", "7120": " fits", "7121": " Sparky", "7122": " bells", "7123": " dollars", "7124": " Larry", "7125": " earn", "7126": "iam", "7127": "angle", "7128": " lending", "7129": " Moon", "7130": " Chirp", "7131": "eese", "7132": " cashier", "7133": "Milly", "7134": " including", "7135": " sniffs", "7136": " sank", "7137": " raincoat", "7138": " Rich", "7139": " trembled", "7140": " stopping", "7141": " source", "7142": "iti", "7143": "imon", "7144": " Missy", "7145": " wobbly", "7146": " indeed", "7147": "ters", "7148": " guests", "7149": " single", "7150": " recommended", "7151": " wee", "7152": " spells", "7153": " accomplishment", "7154": " belts", "7155": " surprising", "7156": " ends", "7157": " hopeful", "7158": " seasons", "7159": " Take", "7160": " Snowman", "7161": " Els", "7162": "Bear", "7163": " plans", "7164": "ichael", "7165": " encourag", "7166": " supported", "7167": "stick", "7168": "illed", "7169": " suffered", "7170": " artist", "7171": " performance", "7172": "eet", "7173": "Nina", "7174": " slowed", "7175": " gross", "7176": " flavors", "7177": "iding", "7178": "ertain", "7179": " spins", "7180": "cho", "7181": "Quack", "7182": " labels", "7183": " raindrops", "7184": " delivery", "7185": "uing", "7186": "arac", "7187": " raccoon", "7188": " forgiving", "7189": "obody", "7190": " Woo", "7191": " pours", "7192": "the", "7193": "ility", "7194": " vanilla", "7195": " turtles", "7196": " stands", "7197": "Bill", "7198": "uess", "7199": " recipe", "7200": " beam", "7201": " tying", "7202": " Sw", "7203": " geese", "7204": " willing", "7205": " robber", "7206": " drawn", "7207": "Vroom", "7208": " wept", "7209": " Bones", "7210": " charac", "7211": " pops", "7212": " corners", "7213": " Sophia", "7214": "elia", "7215": " queens", "7216": " sailboat", "7217": " grip", "7218": " die", "7219": " drivers", "7220": "itude", "7221": " moo", "7222": " hallway", "7223": " imagining", "7224": " seconds", "7225": " Fuzzy", "7226": "Mine", "7227": " preparing", "7228": " widened", "7229": " adult", "7230": " Spirit", "7231": " grocer", "7232": " coop", "7233": " talented", "7234": " Pam", "7235": " Beaky", "7236": " Izzy", "7237": "ummies", "7238": " sailors", "7239": "lling", "7240": " softer", "7241": " aside", "7242": " watering", "7243": " sending", "7244": " knots", "7245": " unsure", "7246": " tipped", "7247": "Lulu", "7248": " treehouse", "7249": " horiz", "7250": " Lizzie", "7251": " notes", "7252": " echo", "7253": "igers", "7254": " achieved", "7255": " horizon", "7256": " squeak", "7257": " delivering", "7258": " pleasure", "7259": " hotter", "7260": " Stella", "7261": "Clara", "7262": " pupils", "7263": " burrow", "7264": " angels", "7265": " curiously", "7266": "Ellie", "7267": " yum", "7268": " blinking", "7269": " June", "7270": " tweet", "7271": " symbols", "7272": " det", "7273": " Stretch", "7274": "wk", "7275": " passen", "7276": " Rudy", "7277": " Cindy", "7278": " tummies", "7279": " tiss", "7280": " pigeons", "7281": " figures", "7282": "umbling", "7283": "oey", "7284": " bandages", "7285": " Robert", "7286": " coup", "7287": " Doctor", "7288": " robots", "7289": "alph", "7290": " tossed", "7291": " hour", "7292": " backwards", "7293": " roars", "7294": "Baby", "7295": " merma", "7296": "uzz", "7297": " rather", "7298": "atur", "7299": "Maria", "7300": "cited", "7301": " Play", "7302": " Crab", "7303": "Moo", "7304": "ighting", "7305": "Dolly", "7306": " groceries", "7307": " zipping", "7308": "Put", "7309": "Very", "7310": " unw", "7311": "prin", "7312": " among", "7313": " blown", "7314": " icing", "7315": "!\u201d.", "7316": " rumble", "7317": " afterwards", "7318": "ipper", "7319": " screwd", "7320": "ushing", "7321": " sped", "7322": " prove", "7323": " glee", "7324": " Titi", "7325": " Tia", "7326": " dip", "7327": " overcome", "7328": "Ruby", "7329": "Quick", "7330": " surfboard", "7331": " shovels", "7332": " slices", "7333": " Toot", "7334": " merry", "7335": " wobble", "7336": " mate", "7337": " Turt", "7338": " Abbie", "7339": " heading", "7340": " disturbing", "7341": " swall", "7342": " reversed", "7343": " firefighters", "7344": "Jul", "7345": " swallowed", "7346": " chip", "7347": "eds", "7348": " scored", "7349": " flipped", "7350": " Jump", "7351": " squeezing", "7352": "usty", "7353": "Frank", "7354": "aty", "7355": "Su", "7356": " waking", "7357": " intrigued", "7358": "Sad", "7359": "Like", "7360": " maker", "7361": " Barky", "7362": "awn", "7363": "Betty", "7364": " puff", "7365": " hawk", "7366": " encouraging", "7367": " aud", "7368": " Ex", "7369": "osen", "7370": "onies", "7371": " chosen", "7372": " Ron", "7373": "hew", "7374": " Farmer", "7375": " Ang", "7376": " couple", "7377": " designs", "7378": " slipping", "7379": " screwdriver", "7380": " squishy", "7381": " Emmy", "7382": " gardener", "7383": " center", "7384": " rivers", "7385": " respond", "7386": " markers", "7387": "iley", "7388": " tigers", "7389": " jars", "7390": "pecting", "7391": " frowns", "7392": "bird", "7393": " fluttered", "7394": " Sadly", "7395": " Kit", "7396": "Ribbit", "7397": " firefighter", "7398": " Sl", "7399": " Ryan", "7400": " suits", "7401": " secure", "7402": " sprinkled", "7403": " creamy", "7404": "ashes", "7405": " sharks", "7406": " ignoring", "7407": " bru", "7408": " giggles", "7409": " tissue", "7410": " tighter", "7411": " firmly", "7412": "ounce", "7413": " Laura", "7414": "fly", "7415": " shown", "7416": " familiar", "7417": " thorns", "7418": "Spike", "7419": " Wo", "7420": " drawers", "7421": "child", "7422": " Zee", "7423": " express", "7424": "Car", "7425": "ments", "7426": " def", "7427": " daring", "7428": " crossing", "7429": " audience", "7430": " performing", "7431": " coloured", "7432": " cloudy", "7433": " cor", "7434": " ais", "7435": " Nick", "7436": "ae", "7437": "rat", "7438": " pedaled", "7439": "Get", "7440": " mixture", "7441": " til", "7442": " gracefully", "7443": "ggy", "7444": " haircuts", "7445": " yielded", "7446": " ponies", "7447": " disob", "7448": " crowns", "7449": " bits", "7450": " todd", "7451": " Sleep", "7452": " nervously", "7453": " hangers", "7454": "bbled", "7455": " Patch", "7456": "Zoomy", "7457": " pays", "7458": " 2", "7459": " peck", "7460": " stroke", "7461": " ev", "7462": "fall", "7463": "Bang", "7464": "een", "7465": " respected", "7466": " napped", "7467": "aven", "7468": " minded", "7469": "ddie", "7470": "Bessie", "7471": "ably", "7472": "Boys", "7473": " tested", "7474": "ading", "7475": "parent", "7476": " Chris", "7477": "Kim", "7478": " University", "7479": " Near", "7480": " beeh", "7481": " Turtle", "7482": " surfing", "7483": " neighbours", "7484": "arrow", "7485": "vered", "7486": " shady", "7487": "iona", "7488": "arlings", "7489": " magician", "7490": " enthusiasm", "7491": " darlings", "7492": " wisely", "7493": " stitches", "7494": " sails", "7495": "kend", "7496": "Dear", "7497": " weekend", "7498": " thoughts", "7499": "Freddy", "7500": " Tweetie", "7501": " reminds", "7502": " temper", "7503": "oring", "7504": "tha", "7505": "antha", "7506": " surroundings", "7507": " spits", "7508": " fleas", "7509": " teams", "7510": " lessons", "7511": " fills", "7512": " flip", "7513": " Along", "7514": " paintbrush", "7515": " melons", "7516": " mermaid", "7517": "oni", "7518": "Katie", "7519": " grandchild", "7520": " hoops", "7521": " explo", "7522": " elbow", "7523": " sports", "7524": "Guess", "7525": " lies", "7526": " Fighting", "7527": "rac", "7528": " panicked", "7529": " cleaner", "7530": " amount", "7531": "cused", "7532": " longest", "7533": " scooters", "7534": " lent", "7535": "ita", "7536": "immering", "7537": " sill", "7538": " beloved", "7539": "Pippin", "7540": " beehive", "7541": "Alright", "7542": "ongrat", "7543": "oga", "7544": "lle", "7545": "ongratul", "7546": " oysters", "7547": " grandparent", "7548": " forgiven", "7549": " magazines", "7550": " arr", "7551": " Wise", "7552": " elf", "7553": " repeating", "7554": " discussed", "7555": " sweetest", "7556": " Thanks", "7557": "Keep", "7558": " wadd", "7559": " Maya", "7560": " reass", "7561": " lace", "7562": " Granny", "7563": " nightmares", "7564": " tubes", "7565": " Willy", "7566": " understands", "7567": " spoonful", "7568": " nood", "7569": " bathing", "7570": " Zoey", "7571": "asty", "7572": "Am", "7573": " sweep", "7574": " manners", "7575": "crow", "7576": "Uncle", "7577": " wrink", "7578": " sprang", "7579": " nur", "7580": " bully", "7581": " Holly", "7582": " guide", "7583": " Yet", "7584": "onna", "7585": "ancy", "7586": " crew", "7587": "romise", "7588": "Jazz", "7589": " breathed", "7590": "while", "7591": "steps", "7592": "ilda", "7593": "ently", "7594": " Bally", "7595": " bulbs", "7596": " neare", "7597": " grassy", "7598": " wiggly", "7599": " testing", "7600": " spies", "7601": " coug", "7602": " solving", "7603": " sheets", "7604": " Roo", "7605": " footsteps", "7606": "ntil", "7607": "Afterwards", "7608": " speeding", "7609": " focused", "7610": "ounced", "7611": "cept", "7612": "?!\"", "7613": " mesmerized", "7614": " camel", "7615": " braver", "7616": " hesitant", "7617": " Sparkle", "7618": " licking", "7619": " rushing", "7620": " Well", "7621": " joining", "7622": " Puppy", "7623": " polar", "7624": " greeted", "7625": " Martha", "7626": "espite", "7627": "--", "7628": " Bubb", "7629": "Which", "7630": "Kiki", "7631": " worn", "7632": " materials", "7633": " changes", "7634": " Nobody", "7635": "undred", "7636": " stored", "7637": " bicycles", "7638": " mast", "7639": " anger", "7640": "Leave", "7641": " peacefully", "7642": " ships", "7643": " spice", "7644": " terrified", "7645": " nuzz", "7646": " gonna", "7647": " Show", "7648": " politely", "7649": "Snow", "7650": " spills", "7651": " scarecrow", "7652": " knives", "7653": " evil", "7654": " Mixy", "7655": "ppies", "7656": " burying", "7657": "ca", "7658": " healing", "7659": " aren", "7660": " donkey", "7661": " aeroplanes", "7662": "freeze", "7663": "Even", "7664": " seals", "7665": " scattering", "7666": " miles", "7667": " Chewy", "7668": "amboo", "7669": " dump", "7670": " worrying", "7671": "Bee", "7672": "zoom", "7673": "beep", "7674": "David", "7675": " Lenny", "7676": " puzzled", "7677": " stacked", "7678": " Kip", "7679": "Penny", "7680": " Nice", "7681": " loses", "7682": "dding", "7683": " travelled", "7684": " baskets", "7685": " Win", "7686": " Okay", "7687": " gazing", "7688": " blast", "7689": "ipes", "7690": " Tess", "7691": "Hurry", "7692": " temperature", "7693": " und", "7694": " tasting", "7695": " dripping", "7696": " clue", "7697": " believing", "7698": " pinching", "7699": "erm", "7700": " soaking", "7701": " rats", "7702": " 10", "7703": "isc", "7704": " sandy", "7705": "rect", "7706": " Isn", "7707": " Simon", "7708": "rey", "7709": "anwhile", "7710": " Abi", "7711": "Binky", "7712": " punishment", "7713": " banged", "7714": " humans", "7715": " crashing", "7716": " force", "7717": " Ana", "7718": " hundred", "7719": " gest", "7720": " Lia", "7721": " swimmer", "7722": " Chess", "7723": " snowflakes", "7724": " relaxing", "7725": " resisted", "7726": " beeped", "7727": " Fairy", "7728": " quarreled", "7729": "form", "7730": "elie", "7731": " ramp", "7732": " Wendy", "7733": " joins", "7734": "abby", "7735": " backpacks", "7736": " Ph", "7737": "years", "7738": " dressing", "7739": " delayed", "7740": " toddler", "7741": " Luckily", "7742": " flight", "7743": " covering", "7744": " Te", "7745": "orter", "7746": "Two", "7747": "Open", "7748": "By", "7749": " encouragement", "7750": " benches", "7751": " toward", "7752": " scraped", "7753": " purpose", "7754": " focus", "7755": " Judy", "7756": "Bow", "7757": " correct", "7758": "'.\"", "7759": " lipstick", "7760": " bamboo", "7761": "Spe", "7762": " twinkled", "7763": " potion", "7764": " permitted", "7765": " months", "7766": " Cow", "7767": " languages", "7768": " orders", "7769": " freedom", "7770": "Tony", "7771": " risks", "7772": " poppies", "7773": " master", "7774": "shm", "7775": " noodles", "7776": " faded", "7777": " wounds", "7778": "shmallow", "7779": "rier", "7780": "Kids", "7781": "isions", "7782": " Jojo", "7783": " creams", "7784": " birdhouse", "7785": " cells", "7786": " annoyed", "7787": " Herb", "7788": "opes", "7789": " sniffing", "7790": " cheers", "7791": " adults", "7792": "Birdy", "7793": " unwra", "7794": "ecca", "7795": "Buzzy", "7796": " puck", "7797": " opinions", "7798": " floats", "7799": "andas", "7800": "Instead", "7801": " flown", "7802": " sneezes", "7803": " scen", "7804": " handsome", "7805": " nodding", "7806": " Mint", "7807": " smelling", "7808": " burnt", "7809": " 5", "7810": " drifted", "7811": "ider", "7812": "bage", "7813": " within", "7814": " scient", "7815": " height", "7816": " damaged", "7817": " bothering", "7818": " tearing", "7819": " slither", "7820": " pleaded", "7821": " instruments", "7822": " ease", "7823": " Ali", "7824": "da", "7825": "Back", "7826": " scientist", "7827": " Marie", "7828": "Mira", "7829": "Goodnight", "7830": " pound", "7831": " seller", "7832": " handing", "7833": " germ", "7834": " Say", "7835": " wasting", "7836": " files", "7837": " results", "7838": " dreamt", "7839": " Mabel", "7840": "bell", "7841": " explains", "7842": " destroying", "7843": " brushing", "7844": "ousy", "7845": " hiss", "7846": " characters", "7847": " Razor", "7848": " Cr", "7849": "Carl", "7850": " certain", "7851": " Ste", "7852": "Pandy", "7853": "Behind", "7854": " sweaty", "7855": " Hug", "7856": "unched", "7857": " business", "7858": " Robbie", "7859": " talents", "7860": " onward", "7861": "Try", "7862": " engines", "7863": " bravest", "7864": "ition", "7865": " sternly", "7866": " Pen", "7867": " Janie", "7868": "prints", "7869": " postman", "7870": " mosquitoes", "7871": " minds", "7872": "under", "7873": "cake", "7874": " tuck", "7875": " scares", "7876": "urious", "7877": " stomp", "7878": " apologised", "7879": "uel", "7880": " manag", "7881": " snuck", "7882": " bitten", "7883": "attered", "7884": " tilted", "7885": " switched", "7886": " reminding", "7887": " decisions", "7888": " singers", "7889": " desper", "7890": " behavior", "7891": " Poor", "7892": "ashing", "7893": " Judge", "7894": "bbers", "7895": "inny", "7896": " squeaked", "7897": " peeled", "7898": " Everybody", "7899": " yumm", "7900": " purrs", "7901": " Bra", "7902": " treated", "7903": " smashed", "7904": " rustling", "7905": " displayed", "7906": " Until", "7907": " neatly", "7908": " matey", "7909": " planting", "7910": " Bess", "7911": " marshmallow", "7912": " insp", "7913": " yelped", "7914": " sy", "7915": " grandparents", "7916": " cracks", "7917": " bellies", "7918": "aver", "7919": " shines", "7920": " scamp", "7921": " Navy", "7922": " hoo", "7923": " failed", "7924": " coloring", "7925": " Yoga", "7926": "line", "7927": " zooms", "7928": " Make", "7929": "rup", "7930": " nasty", "7931": " breathing", "7932": " combed", "7933": " pandas", "7934": " despite", "7935": " address", "7936": "ighing", "7937": " waterfall", "7938": "uffin", "7939": "omp", "7940": "cc", "7941": " Loop", "7942": " Angel", "7943": "Tilly", "7944": " wider", "7945": " robbers", "7946": " antic", "7947": "Play", "7948": "Abigail", "7949": " sweaters", "7950": " echoed", "7951": " doorway", "7952": " Todd", "7953": "evin", "7954": " edges", "7955": " inj", "7956": " Shadow", "7957": "Aunt", "7958": " gap", "7959": " disobey", "7960": " Blinky", "7961": "wise", "7962": "Liz", "7963": " Michael", "7964": " tar", "7965": " Flick", "7966": "oscope", "7967": "orking", "7968": "Wake", "7969": " taped", "7970": " magnif", "7971": "ulp", "7972": "father", "7973": " scolds", "7974": " flaps", "7975": " action", "7976": " crawls", "7977": " Mindy", "7978": "Ros", "7979": " swap", "7980": " gobbled", "7981": " backs", "7982": " Gary", "7983": " warri", "7984": " Fishy", "7985": " Eddie", "7986": "Slow", "7987": " steth", "7988": " sever", "7989": " shinier", "7990": " probably", "7991": " newspapers", "7992": " several", "7993": " occ", "7994": "Rock", "7995": "Lena", "7996": " encount", "7997": " Meg", "7998": " serving", "7999": " quieter", "8000": " plucked", "8001": " connected", "8002": "tock", "8003": " Share", "8004": " ouch", "8005": "igger", "8006": "Ted", "8007": "Adam", "8008": " gesture", "8009": "Too", "8010": "Fl", "8011": " student", "8012": " plot", "8013": " doorbell", "8014": " squaw", "8015": " cares", "8016": "fire", "8017": " rescuing", "8018": " grandson", "8019": " Se", "8020": " spy", "8021": " simply", "8022": " rows", "8023": " goo", "8024": "iel", "8025": " whistles", "8026": "mies", "8027": "vant", "8028": "Shrink", "8029": "Magic", "8030": " snaps", "8031": " shorter", "8032": " astronauts", "8033": "ssss", "8034": " unpacking", "8035": " cottage", "8036": " Time", "8037": " swo", "8038": " accidents", "8039": "ibi", "8040": " swollen", "8041": " mood", "8042": " Nut", "8043": "Steve", "8044": "abelle", "8045": " Zippy", "8046": " Mousy", "8047": "anie", "8048": "Zara", "8049": " bothered", "8050": "Hannah", "8051": " stethoscope", "8052": "found", "8053": " trusting", "8054": " causing", "8055": "Mat", "8056": "Mad", "8057": " leapt", "8058": " dresser", "8059": "aint", "8060": " sou", "8061": " proper", "8062": " pills", "8063": "retty", "8064": " throughout", "8065": "Olive", "8066": " runner", "8067": " prayers", "8068": " Dina", "8069": " joyful", "8070": "Thomas", "8071": "mates", "8072": " locks", "8073": " Prince", "8074": "Jamie", "8075": " goats", "8076": "what", "8077": " target", "8078": "rest", "8079": " Wait", "8080": " Karen", "8081": " dears", "8082": " Bang", "8083": "artled", "8084": "Red", "8085": " waddled", "8086": " munch", "8087": " flips", "8088": " Cro", "8089": " lowered", "8090": " stepping", "8091": " cons", "8092": " Jackie", "8093": " teachers", "8094": " cowboy", "8095": " Toys", "8096": " inches", "8097": " envelopes", "8098": "ears", "8099": " char", "8100": " Vroom", "8101": " explorer", "8102": " anticip", "8103": " playd", "8104": " Ready", "8105": " Ruff", "8106": " Ralph", "8107": "unity", "8108": "Nice", "8109": "Finn", "8110": " Bad", "8111": "ening", "8112": " knocking", "8113": " floors", "8114": " efforts", "8115": " Pl", "8116": " uniforms", "8117": "lied", "8118": " Tri", "8119": " aware", "8120": " footprints", "8121": "Someone", "8122": " nearly", "8123": " Fiona", "8124": "llas", "8125": " disc", "8126": " Ria", "8127": "ivi", "8128": " whimp", "8129": " trot", "8130": " sens", "8131": " glitt", "8132": " appreciation", "8133": "oosh", "8134": " necks", "8135": " collap", "8136": " checks", "8137": " lapt", "8138": " except", "8139": " plug", "8140": " charge", "8141": " Jacky", "8142": " fluttering", "8143": " umbrellas", "8144": " stamped", "8145": "acy", "8146": " sandcastles", "8147": " Davey", "8148": " statues", "8149": " Honey", "8150": "omb", "8151": "iscuit", "8152": "ails", "8153": "Hoppy", "8154": " shrank", "8155": " Amelia", "8156": "rily", "8157": " prick", "8158": " finishing", "8159": " adds", "8160": "rons", "8161": " stroll", "8162": " hunters", "8163": " dodged", "8164": " chocolates", "8165": " passengers", "8166": " germs", "8167": "oger", "8168": " wrigg", "8169": " aprons", "8170": " aisle", "8171": " sets", "8172": ".'\"", "8173": " Gerry", "8174": " weeds", "8175": " novels", "8176": "order", "8177": " demanding", "8178": " Taking", "8179": " scratching", "8180": " meows", "8181": "issa", "8182": "Dr", "8183": " nurses", "8184": "Lucky", "8185": " minding", "8186": " discussing", "8187": "urrender", "8188": " killed", "8189": " driveway", "8190": " Cari", "8191": " becomes", "8192": " toolbox", "8193": " laptop", "8194": " haird", "8195": " Eliz", "8196": " posit", "8197": " attack", "8198": " Sadie", "8199": " Despite", "8200": "Speedy", "8201": " Gl", "8202": "sol", "8203": " scampered", "8204": " bounces", "8205": " supplied", "8206": " sprays", "8207": " deed", "8208": " tempt", "8209": " suggestion", "8210": " friendships", "8211": " burns", "8212": "Coco", "8213": " slapping", "8214": " closing", "8215": "Arrr", "8216": " invites", "8217": " belongings", "8218": " anticipation", "8219": " springing", "8220": " form", "8221": " erase", "8222": " cotton", "8223": " Stan", "8224": " twists", "8225": " rays", "8226": " snuggle", "8227": " forgives", "8228": " models", "8229": " shall", "8230": " massages", "8231": " humming", "8232": "onnie", "8233": " responded", "8234": " newfound", "8235": " ghosts", "8236": " expecting", "8237": " Shelly", "8238": " cheated", "8239": "Does", "8240": " Wooly", "8241": "Gigi", "8242": "otte", "8243": " traveling", "8244": " Ne", "8245": " cond", "8246": " battle", "8247": " although", "8248": "alloween", "8249": " mommies", "8250": " invitations", "8251": " carries", "8252": " aim", "8253": " refreshing", "8254": " presented", "8255": " conc", "8256": "hel", "8257": " twenty", "8258": " rowed", "8259": " Bumpy", "8260": "ots", "8261": " squir", "8262": "rie", "8263": "arlotte", "8264": " foxes", "8265": " cooper", "8266": " final", "8267": " duckling", "8268": " cafe", "8269": " Bibi", "8270": "Pip", "8271": " marshmallows", "8272": " clicked", "8273": " Zipper", "8274": "oor", "8275": " jets", "8276": " designing", "8277": " beaver", "8278": "five", "8279": " Muffin", "8280": " Halloween", "8281": " mugs", "8282": " Whoever", "8283": " drown", "8284": " Although", "8285": " tricycle", "8286": " picnics", "8287": " oppos", "8288": " convin", "8289": " Ruth", "8290": " Excited", "8291": "iens", "8292": " Cle", "8293": "po", "8294": " scoops", "8295": " congratul", "8296": " Pop", "8297": " Maddie", "8298": "Sadly", "8299": " travels", "8300": " aliens", "8301": " \u2014", "8302": " tests", "8303": " questioned", "8304": " Speed", "8305": "inted", "8306": " strips", "8307": " craft", "8308": "Near", "8309": "atty", "8310": "Mouse", "8311": "covered", "8312": " defe", "8313": " Flutter", "8314": " Bubba", "8315": "iri", "8316": "Br", "8317": " fights", "8318": "roken", "8319": "Ball", "8320": " opposite", "8321": " Biggy", "8322": "Hmm", "8323": "Find", "8324": "Elly", "8325": "Chloe", "8326": " Im", "8327": " rout", "8328": " grandfather", "8329": " encountered", "8330": " afford", "8331": " Never", "8332": " decl", "8333": "inch", "8334": " raising", "8335": "iment", "8336": " upside", "8337": " Vivi", "8338": "Meanwhile", "8339": "Jess", "8340": " flashed", "8341": " calmly", "8342": " Rita", "8343": " yawning", "8344": " sincere", "8345": " realizes", "8346": "aturday", "8347": "Trust", "8348": "Choo", "8349": " crystals", "8350": " buddy", "8351": " Samantha", "8352": " cupcakes", "8353": " buckled", "8354": "byes", "8355": "Both", "8356": " winners", "8357": " defin", "8358": "verse", "8359": "ris", "8360": "',", "8361": " weapons", "8362": " caw", "8363": "shadow", "8364": "Josh", "8365": " packages", "8366": " cheat", "8367": " Saturday", "8368": " sacks", "8369": " messes", "8370": " goodbyes", "8371": " coach", "8372": " attem", "8373": "quet", "8374": " convers", "8375": " Truck", "8376": " Flo", "8377": "val", "8378": " drift", "8379": " caps", "8380": " Mina", "8381": " Eva", "8382": "emies", "8383": " enemies", "8384": "asha", "8385": " yummiest", "8386": " scrub", "8387": " swallow", "8388": " returning", "8389": "rian", "8390": " admiration", "8391": " Softy", "8392": " Megan", "8393": "Since", "8394": " sprout", "8395": " Louise", "8396": " unable", "8397": " Playing", "8398": " Another", "8399": "ugging", "8400": "ooks", "8401": " sadder", "8402": " freezing", "8403": " brightest", "8404": " bless", "8405": " Yawn", "8406": " respon", "8407": " Man", "8408": "reverse", "8409": " response", "8410": " cosy", "8411": " Oh", "8412": " diamonds", "8413": " bride", "8414": "stalk", "8415": " reapp", "8416": " opport", "8417": " honking", "8418": " garbage", "8419": " whispering", "8420": " stretches", "8421": " prevented", "8422": "erk", "8423": "antastic", "8424": " whoever", "8425": " odd", "8426": " awful", "8427": " Gray", "8428": "alth", "8429": " weighs", "8430": " journeys", "8431": " awoke", "8432": "Brrr", "8433": " traps", "8434": " spices", "8435": " dragonfly", "8436": "off", "8437": " born", "8438": " reassured", "8439": " clip", "8440": "ivia", "8441": " stall", "8442": " beanstalk", "8443": " argum", "8444": " examining", "8445": " definitely", "8446": " beetles", "8447": " automobiles", "8448": " Maisy", "8449": "mine", "8450": "ici", "8451": "Hop", "8452": " visitors", "8453": " stuffing", "8454": " playdate", "8455": " washes", "8456": "cie", "8457": "broken", "8458": " wiser", "8459": " customer", "8460": "uper", "8461": "emma", "8462": "Rachel", "8463": " travelling", "8464": " Sofia", "8465": " Jolly", "8466": " Flop", "8467": "ouquet", "8468": " hairdress", "8469": " bouquet", "8470": " Nurse", "8471": "orse", "8472": "bble", "8473": ",'", "8474": " tumbled", "8475": " decoration", "8476": " campfire", "8477": " Elle", "8478": " honesty", "8479": " bud", "8480": "vy", "8481": "ebecca", "8482": "Only", "8483": " bomb", "8484": " welcoming", "8485": " offering", "8486": " wealth", "8487": " troubles", "8488": " occas", "8489": " increasing", "8490": " Ot", "8491": " Jax", "8492": " Hello", "8493": " loudest", "8494": " inspired", "8495": " type", "8496": " parted", "8497": " groan", "8498": " Chick", "8499": " Nutty", "8500": "irac", "8501": " whales", "8502": " Thunder", "8503": " Ricky", "8504": "yl", "8505": " declared", "8506": " correctly", "8507": "yler", "8508": "ooky", "8509": "fus", "8510": " beaks", "8511": " Quacky", "8512": "athan", "8513": " cleared", "8514": " cowboys", "8515": " nuzzled", "8516": " Dotty", "8517": " prizes", "8518": " exch", "8519": "Finny", "8520": " warmly", "8521": " Missile", "8522": " rewards", "8523": " obeyed", "8524": " customers", "8525": "Should", "8526": " sirens", "8527": " comforting", "8528": " Fel", "8529": "shaped", "8530": " connect", "8531": " Flappy", "8532": "match", "8533": " towns", "8534": " Magic", "8535": " Bingo", "8536": "elieve", "8537": " rely", "8538": " Vicky", "8539": "Honey", "8540": " trigger", "8541": " owns", "8542": " insisting", "8543": " fantastic", "8544": " bends", "8545": " Fe", "8546": " spoiling", "8547": " hairdresser", "8548": " surrendered", "8549": " supporting", "8550": " shares", "8551": " poses", "8552": " pipes", "8553": " cleans", "8554": "rench", "8555": "Sun", "8556": "Outside", "8557": "Julie", "8558": " wrinkled", "8559": " Cook", "8560": " chopped", "8561": " recorder", "8562": " moons", "8563": " beaming", "8564": "unes", "8565": "ellow", "8566": "Beth", "8567": " thanking", "8568": " snowy", "8569": " Wolf", "8570": " scurry", "8571": " experien", "8572": " enjoyable", "8573": " active", "8574": " coral", "8575": " Piggy", "8576": " environ", "8577": " dollar", "8578": " Kevin", "8579": "worm", "8580": "elope", "8581": " loc", "8582": "Je", "8583": " streamers", "8584": " Bub", "8585": "udged", "8586": " Patty", "8587": " Mother", "8588": " Zack", "8589": "inger", "8590": "Suzy", "8591": " examp", "8592": " shorts", "8593": " shooed", "8594": " environment", "8595": "Tree", "8596": " ill", "8597": " scent", "8598": " bruises", "8599": "uster", "8600": " grat", "8601": " Luc", "8602": "Bo", "8603": " hisses", "8604": " steering", "8605": " self", "8606": " plugged", "8607": " Elsa", "8608": " warrior", "8609": " visits", "8610": " exercises", "8611": "screen", "8612": "irl", "8613": "aptain", "8614": " dangers", "8615": " cuddles", "8616": " Rel", "8617": " Min", "8618": " Ar", "8619": " unfortunately", "8620": " squished", "8621": " signing", "8622": " Light", "8623": "bee", "8624": "Ray", "8625": " pilots", "8626": " disappoint", "8627": "munk", "8628": " gratitude", "8629": " applauding", "8630": " providing", "8631": " Moppy", "8632": "alf", "8633": " tickles", "8634": " ting", "8635": " Rub", "8636": "Grow", "8637": " storms", "8638": " nights", "8639": " jud", "8640": " convinced", "8641": " badger", "8642": " Elsie", "8643": " youn", "8644": " responsib", "8645": " choosing", "8646": " Kelly", "8647": "Joy", "8648": " youngest", "8649": " nearest", "8650": " brains", "8651": " activity", "8652": "Abby", "8653": " exploded", "8654": " coughed", "8655": " arranged", "8656": "Claire", "8657": " rewarding", "8658": " Tre", "8659": " Fly", "8660": "pr", "8661": "good", "8662": "erpiece", "8663": " sunscreen", "8664": " peep", "8665": " bond", "8666": " Floppy", "8667": "asers", "8668": "Mon", "8669": " Tweety", "8670": " Sweet", "8671": " Katy", "8672": " Joan", "8673": " Sal", "8674": "ilities", "8675": " annoying", "8676": "sn", "8677": " soapy", "8678": "meow", "8679": "Splash", "8680": " rails", "8681": " laces", "8682": " threads", "8683": " tapping", "8684": " offic", "8685": " appreciated", "8686": " Pine", "8687": " Phil", "8688": "boards", "8689": " weighing", "8690": " heartbroken", "8691": " emerged", "8692": " congratulated", "8693": " Pick", "8694": "Danger", "8695": " tin", "8696": " Sil", "8697": " crocodiles", "8698": " clerk", "8699": " scram", "8700": " attempt", "8701": " Nancy", "8702": "water", "8703": "Ahoy", "8704": " snug", "8705": " messed", "8706": " example", "8707": " dial", "8708": " Kay", "8709": " Any", "8710": "Momma", "8711": " hooks", "8712": " Jonny", "8713": " tops", "8714": " chipmunk", "8715": " soot", "8716": " guarding", "8717": " bathed", "8718": " manager", "8719": " Tippy", "8720": "ortunately", "8721": " Microscope", "8722": "Friends", "8723": " De", "8724": "etah", "8725": "Snowy", "8726": " masterpiece", "8727": " Baa", "8728": " erasers", "8729": " tips", "8730": " finishes", "8731": " fet", "8732": " common", "8733": " Tomorrow", "8734": "mbers", "8735": " trotted", "8736": " nibbled", "8737": " members", "8738": " digs", "8739": "People", "8740": " kinder", "8741": " cheetah", "8742": " particularly", "8743": " chews", "8744": " blond", "8745": "ircle", "8746": " rips", "8747": " beast", "8748": "Lizzy", "8749": " argument", "8750": "ative", "8751": " faith", "8752": " Helping", "8753": " earned", "8754": "Anne", "8755": " observing", "8756": " forgiveness", "8757": " Joke", "8758": " Cici", "8759": "chievous", "8760": " instantly", "8761": " fishes", "8762": " experienced", "8763": " curl", "8764": " cheaper", "8765": " Jumpy", "8766": "Rosie", "8767": " mischievous", "8768": " generosity", "8769": " cages", "8770": " Twist", "8771": "Gr", "8772": "Baa", "8773": " meowing", "8774": " foam", "8775": "mered", "8776": "Cindy", "8777": " stores", "8778": " grandd", "8779": " Ag", "8780": "etchup", "8781": " mattered", "8782": " teles", "8783": " passes", "8784": " limp", "8785": "Sque", "8786": " sleeps", "8787": "iolet", "8788": " breaths", "8789": "ordinary", "8790": "ettle", "8791": "ending", "8792": " trans", "8793": " rin", "8794": " gasps", "8795": " Freddie", "8796": "Got", "8797": " rumbling", "8798": " hatch", "8799": " Momma", "8800": "over", "8801": "abra", "8802": " grassho", "8803": " accomplished", "8804": " Hopper", "8805": "acing", "8806": " thump", "8807": " telescope", "8808": " strum", "8809": " smartest", "8810": " mats", "8811": " whined", "8812": " moat", "8813": "Gina", "8814": " scrambled", "8815": " jugg", "8816": " farmers", "8817": " Ice", "8818": " drip", "8819": "Robbie", "8820": " syrup", "8821": " gardens", "8822": " collapsed", "8823": " angrily", "8824": " More", "8825": "ouraged", "8826": "idey", "8827": " vegg", "8828": " styles", "8829": " forests", "8830": " experiences", "8831": " discoveries", "8832": "hole", "8833": " tor", "8834": " medals", "8835": " types", "8836": " otters", "8837": " meaning", "8838": " faint", "8839": " conqu", "8840": " Does", "8841": "pit", "8842": "adabra", "8843": "acock", "8844": " snapping", "8845": " hardest", "8846": " fif", "8847": "ering", "8848": " movements", "8849": " expression", "8850": " surv", "8851": " chilly", "8852": " bubbly", "8853": " affect", "8854": "Pinky", "8855": " vests", "8856": " unfair", "8857": " court", "8858": "Whenever", "8859": " toothbrush", "8860": " scores", "8861": " extraordinary", "8862": "Never", "8863": " attitude", "8864": " vibr", "8865": " horri", "8866": " bluebird", "8867": " Monkey", "8868": "mel", "8869": "lls", "8870": "Mo", "8871": " spears", "8872": " ketchup", "8873": " Berry", "8874": "Mother", "8875": " sooner", "8876": " grasshopper", "8877": " behaviour", "8878": " patches", "8879": " habit", "8880": "yd", "8881": "erts", "8882": "Karen", "8883": " pokes", "8884": " momma", "8885": " afar", "8886": " Ashley", "8887": "lo", "8888": "ieves", "8889": "Jacob", "8890": " thicker", "8891": " scri", "8892": " Friend", "8893": "Jon", "8894": " squeezes", "8895": " slithered", "8896": " shrunk", "8897": " classmates", "8898": " Terry", "8899": " Fle", "8900": " icky", "8901": " prickly", "8902": " glittering", "8903": " expert", "8904": " topp", "8905": " kneeling", "8906": " announced", "8907": " Super", "8908": " Riri", "8909": "elling", "8910": " peacock", "8911": " marking", "8912": "ctric", "8913": " costs", "8914": " Cally", "8915": " Achoo", "8916": " zigzags", "8917": " watermel", "8918": " thieves", "8919": " skirts", "8920": " jumper", "8921": " hood", "8922": " acts", "8923": " Zog", "8924": " App", "8925": " wolves", "8926": " Swim", "8927": " Cloud", "8928": "Papa", "8929": " thumbs", "8930": " squeaky", "8931": " concer", "8932": " cocoon", "8933": " woodcut", "8934": " boards", "8935": " Eliza", "8936": " Becky", "8937": " servant", "8938": "idence", "8939": "affle", "8940": " cheating", "8941": " Jason", "8942": "bu", "8943": " trading", "8944": " raking", "8945": "cat", "8946": "Jessie", "8947": " explaining", "8948": " Eric", "8949": "rick", "8950": " tidied", "8951": " biscuit", "8952": " lunchtime", "8953": " luckily", "8954": " Ac", "8955": "anced", "8956": "Frog", "8957": " Puffy", "8958": " spilling", "8959": " Day", "8960": "Fire", "8961": " transform", "8962": " desserts", "8963": " Use", "8964": " Maddy", "8965": " Daniel", "8966": " Animal", "8967": "ror", "8968": " Pig", "8969": " Mine", "8970": " Still", "8971": " Gill", "8972": "rough", "8973": "amma", "8974": " messages", "8975": " mirac", "8976": " Captain", "8977": "idy", "8978": " windowsill", "8979": " chill", "8980": " beating", "8981": " Tammy", "8982": " Lung", "8983": " Gilly", "8984": "oot", "8985": " seeking", "8986": " actor", "8987": " Rainbow", "8988": " Lina", "8989": " William", "8990": "sess", "8991": "its", "8992": " Math", "8993": "pril", "8994": "Any", "8995": " foreshadow", "8996": "war", "8997": "acles", "8998": "Bluey", "8999": " leans", "9000": " Step", "9001": " Pinch", "9002": " Hi", "9003": "racadabra", "9004": "Freeze", "9005": "Bounce", "9006": " watermelon", "9007": " hissing", "9008": " flashing", "9009": " dev", "9010": " cloths", "9011": " Tiger", "9012": " Monster", "9013": " Frankie", "9014": " winding", "9015": " positive", "9016": " funn", "9017": " discouraged", "9018": " Wil", "9019": "pop", "9020": " woodcutter", "9021": " forts", "9022": " dripped", "9023": " compete", "9024": " teapot", "9025": " pressing", "9026": " disagreeing", "9027": "icking", "9028": " glimmering", "9029": " veggies", "9030": " trusts", "9031": " tidying", "9032": " kangaroos", "9033": " Peep", "9034": " tempted", "9035": " landing", "9036": " Flora", "9037": " dock", "9038": " shallow", "9039": " overw", "9040": " formed", "9041": "lers", "9042": " rack", "9043": " fade", "9044": " Tooth", "9045": "flowers", "9046": " worst", "9047": " electric", "9048": " cops", "9049": "eling", "9050": "Nothing", "9051": " apology", "9052": "iving", "9053": "creams", "9054": "ai", "9055": " sleds", "9056": " Silver", "9057": " Life", "9058": "upid", "9059": " comets", "9060": " ass", "9061": "Owl", "9062": " sav", "9063": " Shark", "9064": " Mag", "9065": " Jelly", "9066": "Bug", "9067": " situations", "9068": " papa", "9069": " officers", "9070": " conversation", "9071": " 4", "9072": "Rain", "9073": " Roger", "9074": " Charlotte", "9075": "storm", "9076": "aye", "9077": " suns", "9078": " ding", "9079": "\u201d,", "9080": " zips", "9081": " structures", "9082": " scurrying", "9083": " pizzas", "9084": " overwhel", "9085": " miller", "9086": " Butter", "9087": " granddaughter", "9088": " foggy", "9089": " Olivia", "9090": " Hurry", "9091": " Amber", "9092": "Zoe", "9093": " Janey", "9094": " webs", "9095": " deserved", "9096": "Rabbit", "9097": " opportunity", "9098": " cubs", "9099": " Yummy", "9100": " Spidey", "9101": " Sasha", "9102": " Mixie", "9103": " Buster", "9104": " snorted", "9105": " rhino", "9106": " differences", "9107": " Gold", "9108": " quacking", "9109": " Tell", "9110": "ifully", "9111": "ended", "9112": "Fifi", "9113": " heaven", "9114": " Birds", "9115": " unlo", "9116": " levers", "9117": " inchworm", "9118": " inter", "9119": " approach", "9120": " Tyler", "9121": "ssess", "9122": " seagulls", "9123": " possess", "9124": " cooperate", "9125": " Rufus", "9126": " Felix", "9127": " Boom", "9128": "welcome", "9129": "sers", "9130": "ragon", "9131": "of", "9132": "?\u201d.", "9133": "andra", "9134": " pose", "9135": " disappointment", "9136": " Smoke", "9137": "ocular", "9138": " speaks", "9139": " sneaks", "9140": "snap", "9141": " binocular", "9142": " artwork", "9143": " surfed", "9144": " scowl", "9145": " answering", "9146": " Snake", "9147": " shortcut", "9148": " Grand", "9149": " sipped", "9150": " robin", "9151": " dep", "9152": "Climb", "9153": " arrest", "9154": " Inky", "9155": "ssy", "9156": " unwrapped", "9157": " ribbit", "9158": " reun", "9159": " amused", "9160": " Amanda", "9161": "ugar", "9162": " repeats", "9163": " pepperoni", "9164": " applause", "9165": " keyhole", "9166": " checkout", "9167": " Mae", "9168": " Cars", "9169": "Lia", "9170": "Deal", "9171": " visitor", "9172": " striking", "9173": " puppets", "9174": " paddling", "9175": "Eat", "9176": " unz", "9177": " croaked", "9178": " attacked", "9179": " Circle", "9180": " Brian", "9181": "orsie", "9182": " spooky", "9183": " Otto", "9184": " Gus", "9185": "Each", "9186": " groaned", "9187": " beautifully", "9188": " Jean", "9189": "gar", "9190": "cidents", "9191": " swimsuits", "9192": " consider", "9193": " checking", "9194": "uses", "9195": " Yellow", "9196": "jest", "9197": " waters", "9198": " groom", "9199": " Squeak", "9200": " Slinky", "9201": "yle", "9202": " invent", "9203": "Luke", "9204": " nets", "9205": " exams", "9206": "otion", "9207": "ets", "9208": " drying", "9209": " Rebecca", "9210": "udy", "9211": "artin", "9212": "agine", "9213": " shrugs", "9214": " lump", "9215": " Auntie", "9216": "sie", "9217": "lest", "9218": " sobbing", "9219": " shyly", "9220": " shoots", "9221": " honks", "9222": " heels", "9223": " cheerfully", "9224": " Since", "9225": "ili", "9226": "hny", "9227": "esses", "9228": " shh", "9229": " chin", "9230": "anish", "9231": " whimpered", "9232": " healthier", "9233": " hangs", "9234": "icious", "9235": "Milo", "9236": " Mus", "9237": " caterpillars", "9238": "izzes", "9239": "Slowly", "9240": " squinted", "9241": " magnifying", "9242": " fries", "9243": " Ratty", "9244": " fascinating", "9245": " blamed", "9246": " Find", "9247": "ulpture", "9248": "ching", "9249": " sculpture", "9250": " frustration", "9251": " Tip", "9252": "ouched", "9253": " shimmering", "9254": " Penelope", "9255": " poss", "9256": " Peace", "9257": "edic", "9258": "Sharing", "9259": " suck", "9260": " pleas", "9261": " numbered", "9262": " nibble", "9263": " Waffle", "9264": "othy", "9265": "ibbles", "9266": "ellie", "9267": "amil", "9268": " flowing", "9269": " baa", "9270": "hings", "9271": "Pepper", "9272": " raked", "9273": " grumbled", "9274": " Off", "9275": "that", "9276": "Bubbles", "9277": " builder", "9278": "racted", "9279": "eat", "9280": " swaying", "9281": " petting", "9282": " guards", "9283": " facing", "9284": " Woolly", "9285": " sprinkle", "9286": " mysteries", "9287": " details", "9288": " Har", "9289": "sey", "9290": " snort", "9291": " flock", "9292": " enemy", "9293": " Boat", "9294": " textures", "9295": " tablet", "9296": " goodies", "9297": " Curious", "9298": " Barry", "9299": "Yesterday", "9300": " wig", "9301": " popping", "9302": " wildflowers", "9303": " stacks", "9304": " marve", "9305": " fans", "9306": " crops", "9307": " countries", "9308": " Jenn", "9309": " Gracie", "9310": "how", "9311": " knobs", "9312": " Tessa", "9313": " Seeing", "9314": " local", "9315": " bushy", "9316": " stew", "9317": " peeped", "9318": " hunting", "9319": " drowned", "9320": " bowing", "9321": " binoculars", "9322": " angrier", "9323": " Bubu", "9324": " maps", "9325": " Match", "9326": " quizzes", "9327": " niece", "9328": " moonlight", "9329": " Glow", "9330": " outfits", "9331": " Johnson", "9332": " Deal", "9333": "OO", "9334": " whoosh", "9335": " weaker", "9336": " wrench", "9337": " mindful", "9338": " crowded", "9339": "cycles", "9340": "Squ", "9341": " endings", "9342": " Beef", "9343": "oll", "9344": "Im", "9345": " property", "9346": " hesitation", "9347": " flashes", "9348": "amiliar", "9349": " unless", "9350": " imaginations", "9351": " fond", "9352": " carts", "9353": " boil", "9354": " ability", "9355": " Oxy", "9356": " Andrew", "9357": "getic", "9358": " glared", "9359": " Right", "9360": " Accidents", "9361": "stand", "9362": " unfamiliar", "9363": " spaces", "9364": " microw", "9365": " knit", "9366": " haven", "9367": " folds", "9368": "ths", "9369": "saw", "9370": "Tuna", "9371": " responsibility", "9372": " dirtier", "9373": " Pet", "9374": "bank", "9375": " pouch", "9376": " microwave", "9377": " desks", "9378": "ibly", "9379": "Bless", "9380": " cracker", "9381": "rnie", "9382": " swapped", "9383": " member", "9384": " date", "9385": " aston", "9386": " Oxygen", "9387": " Ring", "9388": " Ravi", "9389": "lt", "9390": "free", "9391": "Want", "9392": "Cra", "9393": " whine", "9394": " softened", "9395": " rebu", "9396": " doorstep", "9397": " disappearing", "9398": " Peggy", "9399": " Helen", "9400": " Bun", "9401": " quacks", "9402": " natur", "9403": " Chip", "9404": "scar", "9405": " writer", "9406": " listener", "9407": " Too", "9408": " Fix", "9409": " priv", "9410": " blushed", "9411": " Spicy", "9412": "venir", "9413": " palms", "9414": " noticing", "9415": "upt", "9416": "repe", "9417": "poison", "9418": " souvenir", "9419": " Past", "9420": "repeat", "9421": "entr", "9422": " laws", "9423": " disaster", "9424": " Tra", "9425": " Res", "9426": " Gabby", "9427": "str", "9428": "reg", "9429": "endant", "9430": "Robby", "9431": " phones", "9432": "ala", "9433": "Ava", "9434": " confidence", "9435": " Li", "9436": " Coal", "9437": " Cut", "9438": " Bert", "9439": " timid", "9440": " stirs", "9441": " overwhelmed", "9442": "ingly", "9443": "Being", "9444": " mayor", "9445": " flick", "9446": "guess", "9447": "asmine", "9448": "Che", "9449": " tugging", "9450": " Pretty", "9451": " Mole", "9452": "lor", "9453": " untangle", "9454": " satisfa", "9455": " owls", "9456": " mailing", "9457": " injured", "9458": "Whose", "9459": " satisfaction", "9460": " concentr", "9461": " White", "9462": " Immediately", "9463": " Books", "9464": "Fly", "9465": " March", "9466": " Animals", "9467": "mers", "9468": "Sc", "9469": "Mittens", "9470": " lim", "9471": " Eat", "9472": "this", "9473": "Mabel", "9474": " prank", "9475": " Wonder", "9476": " Nora", "9477": " Bonnie", "9478": "Wiggly", "9479": " hooves", "9480": " Triangle", "9481": " Run", "9482": " Pot", "9483": " Melissa", "9484": " Kn", "9485": "well", "9486": "Jeff", "9487": " fixer", "9488": " Startled", "9489": " Sir", "9490": " Clean", "9491": " Close", "9492": "icate", "9493": " snar", "9494": " clut", "9495": "lish", "9496": "bling", "9497": "Excited", "9498": " skies", "9499": " instrument", "9500": " Trucky", "9501": " capt", "9502": " Matilda", "9503": " Horsie", "9504": " Faye", "9505": "adually", "9506": " disagre", "9507": "iky", "9508": " wriggled", "9509": " stains", "9510": " rinse", "9511": " pecks", "9512": " creak", "9513": " Sleepy", "9514": "Susan", "9515": " shave", "9516": " bumping", "9517": " Sing", "9518": " Icy", "9519": " Heli", "9520": " Crabby", "9521": "ulf", "9522": " swirl", "9523": " ruff", "9524": " bending", "9525": "cessary", "9526": "Playing", "9527": "Close", "9528": " sandpit", "9529": " exploration", "9530": " chatted", "9531": " Scissors", "9532": "Make", "9533": " rods", "9534": " lever", "9535": " facts", "9536": "Sm", "9537": " attaching", "9538": " Candy", "9539": " fooled", "9540": " burger", "9541": " Bro", "9542": " glows", "9543": " concerned", "9544": " clearly", "9545": "Maya", "9546": " salon", "9547": " reversing", "9548": " lava", "9549": " compan", "9550": " certainly", "9551": "els", "9552": "Wally", "9553": " smelt", "9554": " motorcycles", "9555": " fetched", "9556": " circ", "9557": " troll", "9558": " tunes", "9559": " sometime", "9560": " prod", "9561": " oldest", "9562": " fireflies", "9563": "Ring", "9564": " kissing", "9565": " challenges", "9566": " blonde", "9567": "Kayla", "9568": " warmed", "9569": " Bobbie", "9570": " unlocking", "9571": " natural", "9572": " differently", "9573": " bound", "9574": " Lots", "9575": "urple", "9576": "sa", "9577": "erg", "9578": "Tara", "9579": "Dino", "9580": "Abracadabra", "9581": " rubb", "9582": " riverbank", "9583": " detect", "9584": " cutter", "9585": " cupcake", "9586": " conquered", "9587": " hates", "9588": " alley", "9589": " Flap", "9590": "sorry", "9591": " swirls", "9592": " sends", "9593": " realise", "9594": " Open", "9595": " Flopsy", "9596": "Julia", "9597": "Isn", "9598": " wiggling", "9599": " sensation", "9600": " munched", "9601": " banging", "9602": " Cammy", "9603": " toppings", "9604": " hippos", "9605": " fist", "9606": " clips", "9607": " Reliable", "9608": "Doctor", "9609": " swayed", "9610": " stings", "9611": " robe", "9612": " miracle", "9613": " halves", "9614": " brakes", "9615": " Greeny", "9616": "Hope", "9617": "Fish", "9618": " survive", "9619": " ostriches", "9620": " Pink", "9621": " Climb", "9622": "ula", "9623": "keepers", "9624": "bert", "9625": "Michael", "9626": " torto", "9627": " otherwise", "9628": " embra", "9629": " crushed", "9630": " bubbling", "9631": " tents", "9632": " Looking", "9633": "ani", "9634": " repairing", "9635": " Of", "9636": " vinegar", "9637": " stretchy", "9638": " rubbish", "9639": " lizards", "9640": " Working", "9641": " Flicker", "9642": " passenger", "9643": " Ed", "9644": "aste", "9645": "Many", "9646": " vibrant", "9647": " tortoise", "9648": " pounced", "9649": " Which", "9650": "Suzie", "9651": " scene", "9652": " Rh", "9653": " Grump", "9654": "gr", "9655": " mooed", "9656": " glided", "9657": " desperately", "9658": " bas", "9659": " snip", "9660": " poop", "9661": " majest", "9662": " intently", "9663": " copied", "9664": " calmer", "9665": " Sundays", "9666": " Lightning", "9667": "rap", "9668": "net", "9669": " woken", "9670": " twel", "9671": " rags", "9672": " judges", "9673": " joyfully", "9674": " jing", "9675": " coolest", "9676": " Per", "9677": "smelling", "9678": " lectures", "9679": " glob", "9680": " Jody", "9681": "lyn", "9682": "isible", "9683": " hips", "9684": " cousins", "9685": " astonished", "9686": " capes", "9687": " Outside", "9688": " Lu", "9689": "uno", "9690": "Eww", "9691": " successfully", "9692": " speaker", "9693": " reunited", "9694": " invisible", "9695": " guesses", "9696": " gooey", "9697": " arrives", "9698": "why", "9699": " twelve", "9700": " bats", "9701": "urity", "9702": "Mikey", "9703": " goodness", "9704": " computers", "9705": " chatting", "9706": " Carla", "9707": "nded", "9708": "mie", "9709": " stacking", "9710": " snowflake", "9711": "istory", "9712": " reappeared", "9713": " racer", "9714": " pounds", "9715": " parks", "9716": " desperate", "9717": " companion", "9718": " commun", "9719": "bed", "9720": "Zigzag", "9721": "Ol", "9722": " luckiest", "9723": " level", "9724": " dou", "9725": " ank", "9726": " tale", "9727": " stomachs", "9728": " sells", "9729": " gall", "9730": " dumb", "9731": " crickets", "9732": " Sugar", "9733": "iggles", "9734": "Nick", "9735": " winds", "9736": " sus", "9737": " gates", "9738": " disobeyed", "9739": " disagreement", "9740": " Steven", "9741": "hile", "9742": "More", "9743": " pearls", "9744": " hoses", "9745": " crisp", "9746": " awhile", "9747": " Whee", "9748": "ites", "9749": "Lou", "9750": " soda", "9751": " popsic", "9752": " loyalty", "9753": " Orange", "9754": "Linda", "9755": " tongues", "9756": " Rosa", "9757": "usion", "9758": "rent", "9759": " rider", "9760": " CD", "9761": "Ooh", "9762": " Black", "9763": "pan", "9764": " surely", "9765": " abo", "9766": " Law", "9767": " Annabelle", "9768": "des", "9769": "colored", "9770": " occasion", "9771": " bund", "9772": "rum", "9773": "izza", "9774": "dog", "9775": "!\u2019", "9776": " stun", "9777": " guitars", "9778": " chicks", "9779": "chief", "9780": " separating", "9781": " seashe", "9782": " rebuild", "9783": " intelligence", "9784": " alligators", "9785": " aboard", "9786": " Raven", "9787": " Iron", "9788": " April", "9789": "Found", "9790": " croak", "9791": " creep", "9792": " Winky", "9793": " Violet", "9794": "aids", "9795": "Something", "9796": "Catch", "9797": " learner", "9798": " caution", "9799": " cuc", "9800": " Old", "9801": " Care", "9802": "solut", "9803": " whines", "9804": " spiky", "9805": " revealing", "9806": " rins", "9807": " Uni", "9808": "working", "9809": " tickling", "9810": " escap", "9811": " Settle", "9812": " underwater", "9813": " globe", "9814": " crouched", "9815": " Roar", "9816": " Coby", "9817": " Ba", "9818": "udge", "9819": "everse", "9820": "!'.", "9821": " prog", "9822": " blooms", "9823": " appearance", "9824": " ''", "9825": "urricane", "9826": "stop", "9827": "seph", "9828": "ifer", "9829": "fived", "9830": "Jan", "9831": " strokes", "9832": " leaking", "9833": " hatched", "9834": " guardian", "9835": " Socky", "9836": "ealing", "9837": "arning", "9838": " zookeepers", "9839": " tant", "9840": " routine", "9841": " persistence", "9842": " doves", "9843": "Snap", "9844": "Sleep", "9845": "Chicky", "9846": " taps", "9847": " squashes", "9848": " quilt", "9849": " painful", "9850": " lighting", "9851": " blame", "9852": " admit", "9853": "Toys", "9854": "Ahh", "9855": " tempting", "9856": " shattered", "9857": " ripp", "9858": " mold", "9859": " deeply", "9860": " Puff", "9861": "ggles", "9862": "Three", "9863": "Ralph", "9864": "Matt", "9865": " throne", "9866": " squirted", "9867": " security", "9868": " peeks", "9869": " electricity", "9870": " centre", "9871": " burgers", "9872": " Spin", "9873": "emon", "9874": "con", "9875": " realizing", "9876": " cooks", "9877": " allowing", "9878": " Liam", "9879": "ushes", "9880": "orth", "9881": "oss", "9882": "cker", "9883": "Jessica", "9884": " lar", "9885": " exchange", "9886": " chopping", "9887": "Share", "9888": "Sophia", "9889": " sweetly", "9890": " Race", "9891": " Quickly", "9892": " Alf", "9893": "vering", "9894": " sweeter", "9895": " rinsed", "9896": " glittered", "9897": "isapp", "9898": "Zero", "9899": "Sw", "9900": " melts", "9901": " melody", "9902": " goggles", "9903": " furious", "9904": " energetic", "9905": " defeated", "9906": " builders", "9907": " Inch", "9908": "asy", "9909": " waded", "9910": " tantrum", "9911": " sniffled", "9912": " chooses", "9913": " Otherwise", "9914": " Cats", "9915": " Comet", "9916": " container", "9917": " competing", "9918": " Giant", "9919": "eremy", "9920": "bang", "9921": " Sharp", "9922": " Mila", "9923": "arted", "9924": " undone", "9925": " seriously", "9926": " protection", "9927": " larger", "9928": " lull", "9929": " hudd", "9930": " attempts", "9931": " Rara", "9932": " Park", "9933": " Duke", "9934": "Shoo", "9935": "Lizzie", "9936": " tossing", "9937": " helicopters", "9938": " cooed", "9939": " cluck", "9940": " buckles", "9941": " Whale", "9942": " Pinchy", "9943": " Cher", "9944": "Sweet", "9945": " Tears", "9946": " Smo", "9947": " Over", "9948": "solutely", "9949": "Still", "9950": "Squeaky", "9951": " hummed", "9952": " dedic", "9953": " courageous", "9954": " Ma", "9955": " Hor", "9956": " Din", "9957": "Maddy", "9958": "Everything", "9959": "Curious", "9960": " racers", "9961": " patients", "9962": " muster", "9963": " god", "9964": " deserves", "9965": " aloud", "9966": " Things", "9967": "aps", "9968": "Use", "9969": " Squee", "9970": " Dragon", "9971": " tours", "9972": " meets", "9973": " marvel", "9974": " Rusty", "9975": " Liza", "9976": " Jet", "9977": "Froggy", "9978": " wrapper", "9979": " Reddy", "9980": " Hops", "9981": " Crusty", "9982": " whiskers", "9983": " nicest", "9984": " improving", "9985": " booth", "9986": " Land", "9987": "Surrender", "9988": "Rocky", "9989": " meadows", "9990": " imaginary", "9991": " bold", "9992": " Starry", "9993": "Twinkle", "9994": "!'\"", "9995": " obst", "9996": " blades", "9997": " Summer", "9998": " Pebby", "9999": "ware", "10000": "\"!", "10001": " strolled", "10002": " risky", "10003": " pairs", "10004": " opt", "10005": " cruel", "10006": " \n\n", "10007": "ssssssss", "10008": " peels", "10009": "she", "10010": "Mina", "10011": "June", "10012": " winks", "10013": " incredibly", "10014": " Kind", "10015": " Joanna", "10016": " Brain", "10017": "meal", "10018": "ically", "10019": "Say", "10020": "OP", "10021": " tanks", "10022": " squawk", "10023": " nearer", "10024": " Excitedly", "10025": "raw", "10026": "los", "10027": "Care", "10028": " transformed", "10029": " tot", "10030": " pedaling", "10031": " messier", "10032": " lamps", "10033": " army", "10034": "eading", "10035": "Ice", "10036": "Davey", "10037": " stur", "10038": " inju", "10039": " fail", "10040": " Riley", "10041": "shrink", "10042": "kind", "10043": "illas", "10044": "can", "10045": "Jackie", "10046": " rect", "10047": " peak", "10048": " munching", "10049": " horrible", "10050": " fuss", "10051": "guard", "10052": "Aw", "10053": " unwrap", "10054": " treas", "10055": " overhead", "10056": " narrow", "10057": " holidays", "10058": " Swimmy", "10059": " Kyle", "10060": "Pippa", "10061": " puffed", "10062": " panicking", "10063": " dryer", "10064": " boiling", "10065": " Patient", "10066": "oned", "10067": " possib", "10068": " host", "10069": " dives", "10070": " Pass", "10071": "ighty", "10072": "cloth", "10073": " softest", "10074": " offers", "10075": " confusion", "10076": " Breezy", "10077": "ka", "10078": "artha", "10079": "Martha", "10080": "Jenna", "10081": " uncovered", "10082": " mustn", "10083": " marveled", "10084": " allerg", "10085": " Jennie", "10086": "uction", "10087": "aly", "10088": " elders", "10089": " cooled", "10090": " Bell", "10091": "mo", "10092": "iciest", "10093": "Janie", "10094": " scre", "10095": " roo", "10096": " mustered", "10097": " dips", "10098": " current", "10099": " Very", "10100": " Gu", "10101": " Dogs", "10102": " treasured", "10103": " rotted", "10104": " heights", "10105": " gratefully", "10106": " glanced", "10107": " coughing", "10108": " cherish", "10109": " chains", "10110": " ankle", "10111": " Winter", "10112": " Sunshine", "10113": "parable", "10114": "idi", "10115": "Maddie", "10116": " --", "10117": "losure", "10118": "'?\"", "10119": " shaky", "10120": " sinking", "10121": " heavily", "10122": " enclosure", "10123": " cupboards", "10124": " Oscar", "10125": " Bruce", "10126": "rice", "10127": "Sky", "10128": " spare", "10129": " sleigh", "10130": " mac", "10131": " inseparable", "10132": " gallop", "10133": " Martin", "10134": " Crocodile", "10135": " oatmeal", "10136": " Spinny", "10137": " Clay", "10138": " Brad", "10139": "oured", "10140": "iring", "10141": "ippers", "10142": "Move", "10143": "Enjoy", "10144": " section", "10145": " riddle", "10146": " necessary", "10147": " lush", "10148": " hob", "10149": " dashed", "10150": " clubs", "10151": " canv", "10152": " Fa", "10153": "stantly", "10154": "people", "10155": "afe", "10156": "Prin", "10157": " conv", "10158": " Square", "10159": " Purple", "10160": " Mona", "10161": "iraffe", "10162": "Mel", "10163": " unst", "10164": "Ant", "10165": " sax", "10166": " praise", "10167": " ordering", "10168": " glittery", "10169": " devast", "10170": " Didi", "10171": "Dare", "10172": " zippers", "10173": " scenery", "10174": " raincoats", "10175": " hundreds", "10176": " allergic", "10177": " Robin", "10178": " Friendship", "10179": "ggie", "10180": "antern", "10181": " suggests", "10182": " rowing", "10183": " completing", "10184": " Val", "10185": " Janet", "10186": " Dilly", "10187": " Bar", "10188": "Turn", "10189": " convince", "10190": " arom", "10191": " Carly", "10192": "Ne", "10193": " nations", "10194": " mushy", "10195": " floppy", "10196": " condition", "10197": " character", "10198": " Belle", "10199": "atest", "10200": " recommendation", "10201": " practised", "10202": " musicians", "10203": "otch", "10204": "isbee", "10205": "Promise", "10206": "Boom", "10207": " seated", "10208": " chatter", "10209": " Tidy", "10210": " skips", "10211": " Whe", "10212": " Potato", "10213": "shop", "10214": "ildren", "10215": "alled", "10216": " slot", "10217": " huddled", "10218": " drill", "10219": " canvas", "10220": " borrowing", "10221": " Leah", "10222": "hand", "10223": "enn", "10224": "aisie", "10225": "Startled", "10226": " soothing", "10227": " lullaby", "10228": " hovering", "10229": " experiment", "10230": " devastated", "10231": " Pee", "10232": " Ha", "10233": " Could", "10234": "irty", "10235": "clock", "10236": "apple", "10237": " remo", "10238": " glisten", "10239": " enjoys", "10240": " Patrick", "10241": " Oak", "10242": " Crane", "10243": "epeat", "10244": "El", "10245": " reck", "10246": " pleasant", "10247": " chili", "10248": "mate", "10249": "ift", "10250": "aming", "10251": "Samantha", "10252": "Right", "10253": " sparrow", "10254": " rocky", "10255": " hoot", "10256": " fulf", "10257": " Respect", "10258": " Number", "10259": " Fluff", "10260": " Cell", "10261": " Brush", "10262": "Frankie", "10263": " values", "10264": " temptation", "10265": " showers", "10266": " compromise", "10267": " airplanes", "10268": " Skeleton", "10269": " Ms", "10270": " Again", "10271": " susp", "10272": " royal", "10273": " hairs", "10274": " conduct", "10275": " chalks", "10276": "robes", "10277": "immered", "10278": "atform", "10279": " folders", "10280": " distracted", "10281": " Hurricane", "10282": "Fortunately", "10283": " unfold", "10284": " reckless", "10285": " compliment", "10286": " Paula", "10287": " Mop", "10288": " Club", "10289": "Simon", "10290": "Jacky", "10291": " recess", "10292": " platform", "10293": " mustaches", "10294": " headache", "10295": " gorillas", "10296": " actors", "10297": " absolutely", "10298": " Libby", "10299": "ico", "10300": "aily", "10301": "Chris", "10302": " townspeople", "10303": " piled", "10304": " cords", "10305": " considerate", "10306": " Yum", "10307": "wen", "10308": "like", "10309": "even", "10310": "Pam", "10311": " smoking", "10312": " Fun", "10313": " Carrot", "10314": " Alarm", "10315": "acey", "10316": " lasers", "10317": " combs", "10318": " charged", "10319": "rings", "10320": "HE", "10321": " sturdy", "10322": " shields", "10323": " pantry", "10324": " aroma", "10325": " Eating", "10326": " Carrie", "10327": "scotch", "10328": "gn", "10329": "ders", "10330": "Sof", "10331": " wanna", "10332": " pea", "10333": " horror", "10334": " Par", "10335": " wax", "10336": " disappears", "10337": " conductor", "10338": " communicate", "10339": " beeping", "10340": " ashes", "10341": " Ernie", "10342": "Poor", "10343": " spades", "10344": " silently", "10345": " petal", "10346": " ladybugs", "10347": " fences", "10348": " buys", "10349": " Leaf", "10350": " Alan", "10351": " wobbles", "10352": " lun", "10353": " aback", "10354": " Stand", "10355": "Larry", "10356": " yuck", "10357": " silk", "10358": " magnific", "10359": " len", "10360": " Wake", "10361": "Win", "10362": "Although", "10363": " warmest", "10364": " hollow", "10365": " hamster", "10366": " Broccoli", "10367": "Sk", "10368": " pail", "10369": " movement", "10370": " motions", "10371": " loads", "10372": " lifeguard", "10373": " caves", "10374": " Hank", "10375": "ooray", "10376": "Hooray", "10377": " whir", "10378": " snoring", "10379": " sly", "10380": " embarrassing", "10381": " earrings", "10382": " agreeing", "10383": " Through", "10384": "ateful", "10385": " clim", "10386": " blade", "10387": " Spoon", "10388": " Horsy", "10389": " Fizzy", "10390": "Mix", "10391": " scowled", "10392": " payoff", "10393": " cables", "10394": " aisles", "10395": " Soar", "10396": " Marley", "10397": " Jasmine", "10398": "mark", "10399": " slight", "10400": " possibilities", "10401": " hare", "10402": " alongside", "10403": " signal", "10404": " scratchy", "10405": " lil", "10406": " antlers", "10407": " Stanley", "10408": " Graceful", "10409": " Cake", "10410": "barrow", "10411": "Sir", "10412": "Nana", "10413": "Imagine", "10414": " wheelbarrow", "10415": " pads", "10416": " dedication", "10417": " Ugly", "10418": "rem", "10419": "ooh", "10420": "laus", "10421": "Wisdom", "10422": "Duck", "10423": "Con", "10424": "Chew", "10425": " roast", "10426": " lookout", "10427": " huff", "10428": " dumped", "10429": " confidently", "10430": " Tuesdays", "10431": " Soap", "10432": " woodpe", "10433": " plank", "10434": " Bark", "10435": "ibo", "10436": " Sis", "10437": " Fork", "10438": "reya", "10439": " workshop", "10440": " keen", "10441": " hurtful", "10442": " handles", "10443": " cherished", "10444": " Rad", "10445": " Panda", "10446": " Lucas", "10447": "okay", "10448": "conut", "10449": "Pretty", "10450": "NG", "10451": "Catty", "10452": " collars", "10453": " coconut", "10454": " harmony", "10455": " flyer", "10456": " Reading", "10457": " Gert", "10458": " Allie", "10459": "umed", "10460": "iana", "10461": " unkind", "10462": " squawked", "10463": " mesmerised", "10464": " magnificent", "10465": " harvest", "10466": " greatest", "10467": " defeat", "10468": " code", "10469": " carton", "10470": "ics", "10471": "Bop", "10472": " raises", "10473": " process", "10474": " pistols", "10475": " Ever", "10476": " Bebe", "10477": "owing", "10478": "Ph", "10479": ".\u2019", "10480": " droop", "10481": " crosses", "10482": " \u201d", "10483": "ulped", "10484": "horse", "10485": " progress", "10486": " gulped", "10487": " Music", "10488": " Colin", "10489": " Bruno", "10490": " Af", "10491": "stal", "10492": "goodbye", "10493": "Hippy", "10494": " whether", "10495": " whipped", "10496": " saxophone", "10497": " mixes", "10498": " funniest", "10499": " School", "10500": " Magnet", "10501": " Jam", "10502": " Claus", "10503": " pollen", "10504": " inform", "10505": " deciding", "10506": " cuddling", "10507": " capture", "10508": "cra", "10509": "Olly", "10510": "Free", "10511": " tentacles", "10512": " hoof", "10513": " guided", "10514": " begs", "10515": " Wr", "10516": " Tick", "10517": "inct", "10518": "Te", "10519": "King", "10520": " magically", "10521": " yawns", "10522": " stinky", "10523": " glistening", "10524": " Apple", "10525": " grump", "10526": " Ken", "10527": " Ami", "10528": "lings", "10529": "imbo", "10530": "Star", "10531": "Abbie", "10532": " woodpecker", "10533": " sleeve", "10534": " parrots", "10535": " gruff", "10536": " clothesline", "10537": " climber", "10538": " Coffee", "10539": " Comp", "10540": "ki", "10541": " splitting", "10542": " lilies", "10543": " halfway", "10544": " hint", "10545": " fluff", "10546": " dizz", "10547": " Robot", "10548": " Oink", "10549": " Hat", "10550": "Show", "10551": " sleepover", "10552": " respecting", "10553": " crafts", "10554": " Sandra", "10555": " During", "10556": " Bea", "10557": "ongratulations", "10558": "ami", "10559": "Robert", "10560": " steered", "10561": " slurp", "10562": " Cookies", "10563": "thur", "10564": "rays", "10565": " widely", "10566": " nudged", "10567": " dustpan", "10568": " depths", "10569": " continuing", "10570": "surrender", "10571": "Whoa", "10572": "Cara", "10573": " tastiest", "10574": " runny", "10575": " amongst", "10576": " achievement", "10577": " Roxy", "10578": " Hook", "10579": "rystal", "10580": " shots", "10581": " motors", "10582": " jigg", "10583": " Gemma", "10584": "Squirrel", "10585": "Granny", "10586": "Butter", "10587": "Anytime", "10588": "'!\"", "10589": " lonel", "10590": " circled", "10591": " calf", "10592": " bands", "10593": " Ouch", "10594": " Nature", "10595": " Mamma", "10596": "shirt", "10597": "Spring", "10598": " trailer", "10599": " stalk", "10600": " gladly", "10601": " farms", "10602": " bleeds", "10603": " Jonathan", "10604": " Ginger", "10605": " theat", "10606": " soul", "10607": " mur", "10608": " hideout", "10609": " bendy", "10610": " bathrobes", "10611": " Op", "10612": " Mail", "10613": " Cream", "10614": "Ana", "10615": " venture", "10616": " science", "10617": " frightening", "10618": " dodging", "10619": " Cherry", "10620": "colate", "10621": "Stella", "10622": "Jonny", "10623": " warns", "10624": " trunks", "10625": " plo", "10626": " Toy", "10627": " Nelly", "10628": " Nate", "10629": " Last", "10630": "oors", "10631": "ndy", "10632": "kest", "10633": "book", "10634": "Sadie", "10635": "Sit", "10636": " ticking", "10637": " skate", "10638": " pancake", "10639": " indoors", "10640": " floaty", "10641": " compared", "10642": " 9", "10643": "usy", "10644": "enna", "10645": "cell", "10646": " snarled", "10647": " frisbee", "10648": " entering", "10649": " blush", "10650": " Promise", "10651": " Del", "10652": " Choo", "10653": "boos", "10654": "Cow", "10655": " till", "10656": " strap", "10657": " spirits", "10658": " setup", "10659": " introducing", "10660": " giants", "10661": " daily", "10662": " avoided", "10663": " Spider", "10664": " Juice", "10665": " Josie", "10666": " Bibo", "10667": " Afric", "10668": "Seeing", "10669": "Foxy", "10670": " solutions", "10671": " leng", "10672": " explode", "10673": " Was", "10674": " Pir", "10675": " Feather", "10676": " Cocoa", "10677": " unzip", "10678": " dining", "10679": " Stri", "10680": "uttered", "10681": "hnn", "10682": "Gogo", "10683": " wiggles", "10684": " tone", "10685": " supplying", "10686": " scree", "10687": " restoring", "10688": " purring", "10689": " pace", "10690": " limped", "10691": " hammers", "10692": " enthusiastically", "10693": " Thermometer", "10694": "uise", "10695": "tled", "10696": "RA", "10697": "Laura", "10698": "Four", "10699": " suspicious", "10700": " proved", "10701": " preschool", "10702": " contained", "10703": " Sisi", "10704": " Char", "10705": "aylor", "10706": "Without", "10707": "Tomorrow", "10708": " theatre", "10709": " islands", "10710": " Mac", "10711": " Carol", "10712": "esy", "10713": " wicked", "10714": " wetter", "10715": " purch", "10716": " limits", "10717": " leopards", "10718": " Tuck", "10719": " Surpr", "10720": " Dancing", "10721": "hnnie", "10722": " roller", "10723": " owning", "10724": " inn", "10725": " hopscotch", "10726": " access", "10727": " Shake", "10728": "itam", "10729": "aret", "10730": " flippers", "10731": " Trees", "10732": " Teach", "10733": "gra", "10734": "garet", "10735": "enses", "10736": " thunderstorm", "10737": " slime", "10738": " lasted", "10739": " jaws", "10740": "ustrated", "10741": "osp", "10742": "aries", "10743": "Tell", "10744": "Boun", "10745": " nanny", "10746": " auntie", "10747": " Stealing", "10748": " Pep", "10749": "just", "10750": " obediently", "10751": " innoc", "10752": " gradually", "10753": "sitter", "10754": " rustle", "10755": " poles", "10756": " bundle", "10757": " Jennifer", "10758": "ydia", "10759": "che", "10760": "Over", "10761": " weed", "10762": " threatened", "10763": " scaly", "10764": " dries", "10765": " curve", "10766": " Nibbles", "10767": " Jes", "10768": " Gret", "10769": "ocolate", "10770": "azors", "10771": "ann", "10772": "Reverse", "10773": "Along", "10774": " vitam", "10775": " twirls", "10776": " rooster", "10777": " rises", "10778": " neighed", "10779": "Friend", "10780": " villain", "10781": " stained", "10782": " repairman", "10783": " calming", "10784": " blur", "10785": " aband", "10786": " Silly", "10787": " Joanne", "10788": "eller", "10789": "Push", "10790": " tucks", "10791": " tingling", "10792": " plus", "10793": " panting", "10794": " majestic", "10795": " mend", "10796": " grain", "10797": " grunt", "10798": " birdie", "10799": " ages", "10800": " Funny", "10801": " Bees", "10802": "aron", "10803": "Toto", "10804": "Ar", "10805": " urging", "10806": " smoky", "10807": " shame", "10808": " recipes", "10809": " Prune", "10810": " Dull", "10811": " Chee", "10812": "Wee", "10813": " hunger", "10814": " exercising", "10815": " escaping", "10816": " chirps", "10817": " Wow", "10818": " Cleaning", "10819": "ylan", "10820": "print", "10821": " twitched", "10822": " notebooks", "10823": " fourth", "10824": " challenged", "10825": " Jodie", "10826": " Feeling", "10827": " 20", "10828": "teen", "10829": "oyal", "10830": "gging", "10831": "acher", "10832": " stroller", "10833": " smoother", "10834": " rectangle", "10835": " poisonous", "10836": " pecking", "10837": " missiles", "10838": " frames", "10839": " flowed", "10840": " dodges", "10841": " blob", "10842": " Turn", "10843": " Singing", "10844": " Should", "10845": " Patches", "10846": "udrey", "10847": "issy", "10848": "ierce", "10849": "elsey", "10850": "Els", "10851": "?!", "10852": " Worm", "10853": " Thankfully", "10854": " Button", "10855": "ossom", "10856": "Ten", "10857": "Bet", "10858": " trim", "10859": " possessions", "10860": " leaped", "10861": " bled", "10862": " Sitting", "10863": "cellent", "10864": "ality", "10865": " tiptoes", "10866": " notices", "10867": " lightly", "10868": " lantern", "10869": " kneels", "10870": " invol", "10871": " handleb", "10872": " flooded", "10873": " detective", "10874": " command", "10875": " Giraffe", "10876": "onk", "10877": "isher", "10878": "anga", "10879": "Pop", "10880": " smoothly", "10881": " scut", "10882": " loos", "10883": " crispy", "10884": " cheesy", "10885": " Twisty", "10886": " Tube", "10887": "ilar", "10888": "ical", "10889": "bur", "10890": "Wo", "10891": "Pick", "10892": " million", "10893": " juggle", "10894": " Afterwards", "10895": " Africa", "10896": "reet", "10897": "bs", "10898": " flavour", "10899": " device", "10900": " Doug", "10901": "ential", "10902": "Rover", "10903": " records", "10904": " protects", "10905": " plopped", "10906": " babysitter", "10907": " Rumble", "10908": "THE", "10909": "Fe", "10910": "Ally", "10911": " toothp", "10912": " swat", "10913": " strikes", "10914": " route", "10915": " pounding", "10916": " instinct", "10917": " flashlights", "10918": " dusted", "10919": " chewy", "10920": " brightened", "10921": " Top", "10922": " Eve", "10923": "Fido", "10924": " stares", "10925": " stiff", "10926": " removing", "10927": " perse", "10928": " mischief", "10929": " mitt", "10930": " Ronny", "10931": " Pa", "10932": " Lady", "10933": " Di", "10934": " Clare", "10935": " Cact", "10936": " 12", "10937": "abella", "10938": "Years", "10939": " stomping", "10940": " oars", "10941": " nightstand", "10942": " Sly", "10943": " Hero", "10944": "icated", "10945": " tend", "10946": " contented", "10947": " Officer", "10948": " Girl", "10949": "yield", "10950": "icia", "10951": "Careful", "10952": "Bouncy", "10953": " vol", "10954": " turkeys", "10955": " reappear", "10956": " priest", "10957": " distract", "10958": " bruise", "10959": " Flash", "10960": " Drink", "10961": "vo", "10962": "orious", "10963": "Woo", "10964": "Pass", "10965": "Jilly", "10966": "Ding", "10967": "Betsy", "10968": " undo", "10969": " thirty", "10970": " seahorse", "10971": " refusing", "10972": " persu", "10973": " performers", "10974": " deck", "10975": " cig", "10976": " braid", "10977": " bolt", "10978": " aid", "10979": " Mill", "10980": " Joseph", "10981": " Jeremy", "10982": " Cheese", "10983": " Avery", "10984": "ya", "10985": "iments", "10986": "hadow", "10987": "Jay", "10988": "Fiona", "10989": "Confused", "10990": " wagons", "10991": " rais", "10992": " quicker", "10993": " organised", "10994": " eyeshadow", "10995": " atop", "10996": " Guard", "10997": "ernie", "10998": "Nobody", "10999": " unload", "11000": " rightful", "11001": " raindrop", "11002": " displaying", "11003": " disguise", "11004": " charity", "11005": " Zoomie", "11006": " Pear", "11007": " Ned", "11008": " Cozy", "11009": "wo", "11010": "ige", "11011": "Ang", "11012": " tablecloth", "11013": " studies", "11014": " shrimps", "11015": " prison", "11016": " arrested", "11017": " Mild", "11018": "umn", "11019": "lock", "11020": "Bra", "11021": " viol", "11022": " unc", "11023": " slightly", "11024": " occasions", "11025": " loser", "11026": " juiciest", "11027": " Fortunately", "11028": " Dream", "11029": "arett", "11030": "abeth", "11031": "Johny", "11032": " tripping", "11033": " scrunched", "11034": " mound", "11035": " lowers", "11036": " length", "11037": " ladybird", "11038": " lur", "11039": " fifty", "11040": " Soft", "11041": " Flame", "11042": " Believe", "11043": "ously", "11044": "chanted", "11045": "Whistle", "11046": "Fox", "11047": "Brown", "11048": " stormy", "11049": " dialed", "11050": " Matthew", "11051": "woo", "11052": "stupid", "11053": "friend", "11054": " soggy", "11055": " loneliness", "11056": " launch", "11057": " hike", "11058": " fiercely", "11059": " community", "11060": " birthdays", "11061": " Ostri", "11062": " Freya", "11063": "ource", "11064": "exit", "11065": "aure", "11066": "Up", "11067": "Cle", "11068": " snowing", "11069": " knitting", "11070": " information", "11071": " hopeless", "11072": " dozed", "11073": " Honest", "11074": "rease", "11075": "ett", "11076": " teaspoons", "11077": " tiring", "11078": " rumbled", "11079": " cigarett", "11080": " Gia", "11081": " Doll", "11082": " Dusty", "11083": " Bessy", "11084": " summ", "11085": " roamed", "11086": " resource", "11087": " forced", "11088": " boiled", "11089": " Mighty", "11090": " Gor", "11091": " Doing", "11092": "rupted", "11093": "ppa", "11094": "asper", "11095": "Hel", "11096": " untangled", "11097": " trumpets", "11098": " foreshadowed", "11099": " enchanted", "11100": " div", "11101": " boarded", "11102": "ornado", "11103": " honeycom", "11104": " gle", "11105": " cutest", "11106": " anybody", "11107": " Rani", "11108": " Fran", "11109": " Carefully", "11110": "atic", "11111": "Drink", "11112": " wrists", "11113": " scrubbing", "11114": " oceans", "11115": " guarded", "11116": " fixes", "11117": " Small", "11118": " Greg", "11119": " Deaf", "11120": "rina", "11121": "poke", "11122": "phew", "11123": "od", "11124": "Marie", "11125": "!\u201d,", "11126": " ducklings", "11127": " Nicky", "11128": " Meow", "11129": " Hairy", "11130": "ika", "11131": "Mind", "11132": "Dizzy", "11133": " witches", "11134": " stretcher", "11135": " sim", "11136": " roofs", "11137": " nephew", "11138": " events", "11139": " drags", "11140": " combing", "11141": " accepting", "11142": " Boy", "11143": "olph", "11144": "jamin", "11145": "inting", "11146": "ior", "11147": "cover", "11148": "BC", "11149": " scolding", "11150": " pineapple", "11151": " antenna", "11152": " Faith", "11153": " Fanny", "11154": "osphere", "11155": "mosphere", "11156": "belt", "11157": "anky", "11158": "andel", "11159": " tul", "11160": " ruled", "11161": " proceed", "11162": " pounce", "11163": " lakes", "11164": " erupt", "11165": " champ", "11166": " atmosphere", "11167": " Sean", "11168": " Melt", "11169": " Kindness", "11170": " Brother", "11171": "flies", "11172": "ada", "11173": "Five", "11174": " creepy", "11175": " abandoned", "11176": "talk", "11177": "gre", "11178": "cies", "11179": "Pr", "11180": " salads", "11181": " ray", "11182": " props", "11183": " pinches", "11184": " designer", "11185": " Shell", "11186": " ABC", "11187": "xie", "11188": "value", "11189": "uliar", "11190": "nings", "11191": "grateful", "11192": " snuggles", "11193": " peculiar", "11194": " parking", "11195": " bangs", "11196": " Sale", "11197": " Maisie", "11198": "oris", "11199": "Todd", "11200": "SH", "11201": "Gus", "11202": " richer", "11203": " misty", "11204": " kill", "11205": " handlebars", "11206": " dizziness", "11207": "fant", "11208": "Toot", "11209": "Spark", "11210": "Oliver", "11211": "Ble", "11212": "Another", "11213": " winking", "11214": " gorge", "11215": " contents", "11216": " bait", "11217": " JoJo", "11218": "essa", "11219": "boom", "11220": "Daniel", "11221": " yards", "11222": " softness", "11223": " howl", "11224": " emergencies", "11225": " En", "11226": "ooked", "11227": " volcanoes", "11228": " terribly", "11229": " sneaking", "11230": " seatbelt", "11231": " prof", "11232": " Sock", "11233": " Roy", "11234": "Velvet", "11235": "Son", "11236": " strict", "11237": " plum", "11238": " jeans", "11239": " guilt", "11240": " grandchildren", "11241": " destr", "11242": " begun", "11243": " Worry", "11244": " Matty", "11245": "Ryan", "11246": "Mae", "11247": ":\"", "11248": " walkie", "11249": " trusty", "11250": " managing", "11251": " fishermen", "11252": " fanc", "11253": " exchanged", "11254": "ressed", "11255": "ashion", "11256": "Santa", "11257": "Ruth", "11258": " subject", "11259": " spoken", "11260": " presence", "11261": " jogs", "11262": " gorgeous", "11263": " clutched", "11264": " Jetty", "11265": " Gwen", "11266": " Flexible", "11267": " Father", "11268": " Billie", "11269": " Bean", "11270": "gain", "11271": " wands", "11272": " vitamins", "11273": " stripe", "11274": " riches", "11275": " liar", "11276": " Timothy", "11277": " Str", "11278": " Long", "11279": "opard", "11280": "eyed", "11281": "car", "11282": "Grand", "11283": "Children", "11284": " valuing", "11285": " unlike", "11286": " heaviest", "11287": " grandk", "11288": " foreshadowing", "11289": " damp", "11290": " arrange", "11291": " Salt", "11292": " Instantly", "11293": " Gen", "11294": "Love", "11295": "Cathy", "11296": "Blech", "11297": " shaker", "11298": " settling", "11299": " mailboxes", "11300": " lif", "11301": " delaying", "11302": " War", "11303": " Passport", "11304": " Kat", "11305": " Heel", "11306": "laud", "11307": "Princess", "11308": " speck", "11309": " rhythms", "11310": " reality", "11311": " dia", "11312": " crust", "11313": " Tiki", "11314": " Micro", "11315": " Kenny", "11316": " Ad", "11317": "fer", "11318": "Sofia", "11319": " useless", "11320": " sunb", "11321": " ladders", "11322": " energ", "11323": " blinks", "11324": " adop", "11325": " Shine", "11326": " Kanga", "11327": " Gertie", "11328": " Ask", "11329": " Amen", "11330": "stack", "11331": "flow", "11332": "Dee", "11333": " unstuck", "11334": " snatch", "11335": " sizz", "11336": " ripples", "11337": " requests", "11338": " releasing", "11339": " promising", "11340": " kindest", "11341": " daddies", "11342": "ousand", "11343": "olo", "11344": "ession", "11345": "Holly", "11346": " sung", "11347": " smash", "11348": " handy",
[...]
